, 592056289
. 542468948
" 247917421
the 168912010
de 142364519
a 107494718
in 101719853
) 93543408
of 90232022
( 89661194
and 83598055
sa 76308802
to 68659015
i 65368884
la 60632241
en 53932354
was 38846202
is 33197067
: 31692691
der 29849718
on 29823069
' 29020852
- 28549761
as 28079495
y 27084438
の 26714838
e 24924675
for 24523605
The 24320180
el 23596112
в 23059424
் 22988727
nga 22622025
un 22593690
he 22333024
que 21687893
at 21638497
ang 21545143
that 21125765
und 20996908
with 20661590
di 20605232
die 20433906
に 20318661
et 20001062
le 19963858
an 19858398
ed 19756571
it 19315505
his 19149098
Ang 18968146
ing 18552756
den 18495980
's 18311442
des 18224177
se 18207465
er 18147660
es 18015085
и 17905285
del 17541158
by 17419466
är 17298152
на 17246634
s 16497434
o 16397642
は 15714798
-@@ 15293333
l' 15075840
her 14924238
à 14782228
్ 14607996
na 14249453
al 14168186
from 13924360
た 13795633
を 13549021
il 13495928
da 13383735
; 13150120
do 13073433
° 12922813
る 12813265
les 12236822
km 12207358
she 11987062
In 11894607
est 11865829
て 11774326
し 11684612
で 11538757
w 11518919
് 11517586
are 11485741
you 11359408
が 11344221
と 11282215
van 11077006
una 10995974
的 10834121
had 10736071
von 10692872
い 10613673
् 10310187
be 10156801
or 9916090
du 9780060
d' 9742406
no 9694791
ug 9637824
were 9614098
je 9573322
ni 9359271
re@@ 9263921
u 9124723
och 9102225
but 9090955
La 9082249
/ 9056571
con 9023151
per 8938916
A 8785885
als 8636749
1 8592456
d 8564558
у 8557862
ation 8368824
im 8314982
med 8306390
C. 8229973
2 8150693
't 8113362
los 8094351
? 8067523
one 8041286
% 7858457
me 7822019
್ 7803213
por 7716901
é 7662852
av 7612322
my 7558172
ist 7537163
ka 7487081
not 7441014
palibot 7342622
، 7268679
z 7216973
l 7178173
en@@ 7049602
which 7002062
em 6969284
het 6926046
og 6912078
have 6901135
mit 6881791
te 6874635
\ 6828757
os 6821759
s@@ 6790582
in@@ 6765258
une 6762975
een 6759602
che 6737905
れ 6675666
t 6656057
this 6644779
ar 6578210
so 6578077
年 6570994
him 6545366
(@@ 6535536
su 6474807
な 6451726
3 6444176
্ 6437441
das 6394568
um 6297004
milimetro 6243215
ch@@ 6236107
un@@ 6229352
с 6193913
és 6156352
us 6154128
er@@ 6130032
S@@ 6035915
om 6026270
som 6022255
son 6020652
they 6017404
ver@@ 6009322
au 5993446
I 5937248
・ 5904106
C 5899691
A@@ 5881469
ers 5857977
has 5849918
ja 5835397
dem 5834710
် 5831239
He 5782154
out 5733904
nasod 5728257
T@@ 5707882
ha 5702551
also 5700412
its 5691175
up 5641813
all 5633499
K@@ 5551514
wurde 5541036
G@@ 5506220
al@@ 5489381
si 5476580
their 5460217
4 5453413
ate 5443432
an@@ 5435131
ar@@ 5431374
Die 5410289
D@@ 5395965
para 5384793
c@@ 5358978
v 5347695
En 5299823
am 5290612
dans 5268296
w@@ 5248322
っ 5243357
z@@ 5232545
par 5207828
been 5207407
who 5201630
first 5186852
De 5152130
あ 5144320
B@@ 5143577
el@@ 5108902
ne 5095214
El 5028133
ein 5023548
zu 5013626
さ 5009743
L@@ 4993536
C@@ 4989106
F@@ 4988185
into 4984179
y@@ 4971613
g@@ 4945521
ent 4931057
como 4922074
over 4913768
n 4913298
Den 4908608
E@@ 4879715
m 4877612
5 4866246
bulan 4865234
W@@ 4852356
M@@ 4843854
P@@ 4820726
H@@ 4795131
kasarangang 4793729
В 4745498
O@@ 4739962
Il 4739782
è 4678118
era 4676873
las 4669041
ia 4668864
ri@@ 4662659
war 4661438
і 4599721
auf 4591620
t@@ 4574529
[ 4570831
time 4561401
ro@@ 4538000
es@@ 4535808
st@@ 4528726
bahin 4527332
It 4523075
ten 4511097
R@@ 4504738
man 4497465
ab@@ 4494274
ce 4484107
10 4473220
sh@@ 4471868
when 4467604
at@@ 4453536
would 4447401
della 4444981
ly 4430492
h@@ 4408505
ou 4400245
für 4399397
eine 4394825
de@@ 4306231
е 4306038
k 4290563
f@@ 4278044
و 4270446
d@@ 4266049
han 4214012
] 4211994
we 4210210
or@@ 4181012
said 4168790
не 4168169
what 4166548
as@@ 4165683
på 4155765
ra@@ 4153960
N@@ 4147001
في 4145045
k@@ 4142096
6 4117635
m@@ 4115795
sich 4101877
two 4081575
Le 4052993
con@@ 4029732
e@@ 4026266
there 4025845
va 4023469
can 4010799
about 4003723
more 3975399
– 3955661
é@@ 3947266
за 3943322
pour 3931064
then 3923881
ve 3914180
ant 3898429
th@@ 3894367
ado 3868729
ie 3868313
di@@ 3858345
ad@@ 3848246
qui 3804061
ent@@ 3795770
after 3787574
mga 3761610
n@@ 3741816
h 3732058
op@@ 3730524
b@@ 3717367
like 3714750
le@@ 3714739
is@@ 3709056
V@@ 3708220
back 3692002
p@@ 3633128
other 3632637
ts 3626585
et@@ 3615758
ti@@ 3613666
7 3604309
on@@ 3603645
する 3595534
o@@ 3586983
nel 3576931
је 3556039
ada 3548120
8 3543563
u@@ 3543498
Z@@ 3543063
も 3542239
po@@ 3538217
з 3537995
ata 3510113
li@@ 3503743
dan 3493750
am@@ 3487744
l@@ 3483428
if 3465606
led 3463867
года 3429150
New 3428007
2010 3425180
ó 3421322
them 3413339
ung 3396347
а 3388211
ato 3386443
ale 3383714
age 3376293
za 3370464
ter 3355671
I@@ 3349067
ine 3337950
sch@@ 3335836
! 3327408
در 3326071
men 3319523
та 3299495
sur 3289573
it@@ 3284945
be@@ 3275278
ut@@ 3272462
по 3254618
i@@ 3245897
where 3244375
ac@@ 3243091
ulohan 3240648
Nahimutang 3240033
com 3227131
ta 3226026
od 3225144
lo 3221945
aus 3215449
ses 3212098
only 3207092
до 3204029
mm 3196406
ap@@ 3196115
An@@ 3190266
U@@ 3179644
к 3178435
om@@ 3174777
mar@@ 3174741
ated 3164566
り 3162644
ano 3137490
Ch@@ 3136491
се 3126255
12 3114919
2011 3108152
An 3099919
9 3080844
si@@ 3075451
re 3059179
door 3054207
r@@ 3050758
det 3032923
could 3026946
p 3026157
ma 3014258
ol@@ 3011233
ag@@ 3009371
per@@ 2998626
J@@ 2995661
月 2990479
20 2986550
من 2983612
ad 2980412
ally 2965315
ser 2964427
for@@ 2961745
im@@ 2956454
way 2943212
2009 2942365
just 2937023
Al@@ 2935665
... 2929210
klima 2923567
ch 2921274
av@@ 2917130
entre 2916629
在 2915546
bis 2900068
Ver@@ 2898789
op 2897993
ations 2896505
se@@ 2888191
var 2887815
able 2885028
auch 2883589
ra 2880525
car@@ 2879175
pro@@ 2863958
par@@ 2863406
ni@@ 2857878
dos 2848642
15 2834201
от 2830789
met 2826224
uma 2820833
film 2820081
W 2817840
yang 2813737
sp@@ 2810003
ya 2809523
2007 2807827
tion 2804495
ter@@ 2795599
til 2788247
2008 2787140
under 2785164
да 2779331
els 2779256
made 2769255
od@@ 2764873
O 2764252
ci@@ 2764158
os@@ 2763064
come 2762584
ul@@ 2759747
ir 2756255
sie 2747433
il@@ 2734385
qu@@ 2731671
nach 2727992
ina 2725826
là 2725434
2012 2721825
some 2720189
giiniton 2712808
2006 2710917
ana 2710056
ot@@ 2709710
kinabugnawan 2707118
kinainitan 2707111
Ar@@ 2701588
than 2701205
az 2693404
ob@@ 2688630
по@@ 2682493
before 2682024
у@@ 2674675
ze 2673881
bei 2667695
metros 2663881
на@@ 2659296
pre@@ 2655250
から 2646666
now 2646106
em@@ 2644099
11 2643638
through 2642141
us@@ 2640967
j@@ 2638327
ans 2635861
ini 2632706
של 2625875
v@@ 2625043
ischen 2617534
ex@@ 2613582
Mar@@ 2607263
из 2607074
est@@ 2599004
Der 2598352
ens 2588531
mao 2573696
18 2567705
e-@@ 2552217
su@@ 2551138
ного 2548858
des@@ 2548687
ки 2546450
avec 2546288
2014 2543540
ber@@ 2540833
any 2539712
ка 2539550
_ 2537101
। 2536010
part 2532848
inter@@ 2530602
30 2526554
2013 2523608
um@@ 2521288
но 2519176
Sch@@ 2516972
years 2516725
well 2516453
году 2514247
ur@@ 2507336
down 2506046
ning 2501084
a@@ 2500560
是 2497374
elle 2495701
end 2475380
ak@@ 2472742
dé@@ 2468763
人 2464274
In@@ 2463262
com@@ 2454539
ibabaw 2450528
ic 2449648
dis@@ 2426300
ded 2423714
ru@@ 2418798
ai 2413478
sk@@ 2405350
dagat 2404787
voor 2401978
aux 2400018
ne@@ 2389063
не@@ 2384386
2015 2384240
się 2383752
månaden 2379575
new 2375389
به 2368014
On 2367875
ée 2359985
einer 2359781
tra@@ 2349939
16 2346015
most 2342895
в@@ 2342601
ной 2341940
'd 2339422
b 2339311
plus 2338116
roku 2337212
will 2336810
ando 2333848
trakten 2331617
album 2331567
oc@@ 2329404
ed@@ 2327669
sed 2327663
c 2326309
ary 2326186
nederbörd 2323439
Y@@ 2319605
ré@@ 2318008
County 2317735
fue 2316663
zum 2312904
с@@ 2311779
් 2307234
between 2303878
ki 2294339
long 2293770
я 2284647
ek 2280625
sc@@ 2279321
ig@@ 2277454
did 2267991
при@@ 2267478
14 2267044
2000 2261703
ted 2256493
later 2252202
eta 2243713
land 2240981
ity 2229947
ett 2228520
II 2226002
ligger 2216581
af@@ 2209317
2016 2208281
used 2206035
13 2204177
日 2202680
2005 2199804
ous 2194099
ali 2193837
This 2193159
te@@ 2192819
ry 2192113
о 2189140
ment 2187902
get 2185417
25 2181644
т 2175691
aan 2160503
r 2159873
go 2155796
ing@@ 2154609
werden 2153840
ulan 2152969
around 2150589
ks 2145036
.@@ 2144668
bi@@ 2142184
don 2136005
iz@@ 2133615
2004 2133282
ang@@ 2130773
vi@@ 2127773
St@@ 2125197
> 2124497
alla 2124080
за@@ 2117428
ische 2116934
being 2115667
dei 2113691
tuig 2108952
こと 2107041
off 2106597
such 2101454
st 2098095
during 2095746
may 2095497
bar@@ 2090992
& 2090766
know 2083865
her@@ 2082537
while 2082323
matag 2081225
pag-ulan 2081036
kinabasaan 2080911
kinaugahan 2080910
ных 2080874
foi 2079769
м 2078829
San 2076645
ca 2073152
ke 2069864
17 2063795
Les 2062800
runt 2059721
eg@@ 2056482
< 2047044
co@@ 2046143
against 2045771
Bar@@ 2043421
three 2041868
một 2039678
про@@ 2032751
sen 2025509
non 2024732
kahaboga 2023911
gra@@ 2020726
United 2020592
John 2018544
় 2017006
ados 2016625
ge 2014594
во 2011989
й 2008647
sont 2006941
L' 2005100
V 2003068
Enero 2002657
formula 2002533
parte 1998228
más 1998138
even 1994978
ic@@ 1985079
mas 1984917
kilometro 1983756
mon@@ 1983283
ere 1979618
ty 1977628
ten@@ 1976876
known 1976658
head 1976281
your 1973811
year 1973541
uit 1973379
see 1970951
lu@@ 1968341
از 1966529
του 1959803
name 1955654
har 1946527
ви@@ 1946188
University 1944918
ant@@ 1943741
id@@ 1942196
для 1940556
man@@ 1939003
people 1928830
ak 1928119
species 1926644
ów 1925332
ati 1918070
ita 1912565
ek@@ 1905444
American 1902944
ite 1900950
red 1897927
gu@@ 1896323
Con@@ 1895234
th 1894895
place 1891664
în 1890334
durch 1889558
meter 1888821
² 1887546
και 1886955
24 1885420
са 1884266
finns 1884058
С@@ 1880888
Hulyo 1879982
x@@ 1879731
ской 1879018
tu@@ 1876673
how 1874504
bo@@ 1873689
este 1869498
sua 1867368
mais 1865848
he@@ 1865417
ir@@ 1863469
didn 1863401
until 1860751
ica 1860546
中 1857877
werd 1855276
pi@@ 1852283
ales 1846486
о@@ 1846436
dell' 1845781
many 1844832
ph@@ 1844141
nie 1842225
der@@ 1842046
19 1841930
них 1841754
2017 1839292
Car@@ 1838684
ю 1836009
work 1833940
right 1833391
ungen 1831476
both 1830461
và 1829678
до@@ 1819145
ins 1817268
л 1817075
ao 1817074
mer@@ 1815694
'@@ 1810040
io 1809806
einem 1809417
ко@@ 1809174
zijn 1807260
2001 1806012
sind 1802824
ement 1801613
ile 1800169
ei 1796915
due 1796207
く 1795414
ble 1794047
100 1793996
ente 1792006
ise 1791417
ación 1791199
است 1788623
ского 1786887
一 1785045
т@@ 1784349
ный 1783209
う 1780951
ti 1780936
Sh@@ 1780657
У 1780237
became 1775822
я@@ 1775687
second 1775195
estado 1774643
born 1772854
ec@@ 1770609
ach 1770435
sub@@ 1767628
Er@@ 1763772
eb@@ 1762452
của 1760770
einen 1759261
ist@@ 1753717
21 1753219
был 1751549
lalawigan 1749618
day 1748174
ные 1747667
still 1746012
g 1744544
Das 1743126
kay 1742634
nicht 1741207
mat@@ 1736812
area 1736449
s' 1734241
over@@ 1731159
x 1730243
Im 1729705
team 1728787
з@@ 1728147
ings 1727859
ía 1727430
ik@@ 1726504
pa 1725653
со@@ 1724522
Ab@@ 1723004
2002 1722100
gi@@ 1718143
use 1716336
но@@ 1715484
í 1713269
ре@@ 1711371
și 1708710
season 1707562
Sa 1707201
wird 1705523
ons 1705053
được 1704196
again 1703742
ton 1702090
York 1701729
2003 1692626
ces 1692006
ene 1691411
a-@@ 1691081
22 1689220
ken 1688711
ante 1686143
du@@ 1683492
Par@@ 1681398
delen 1681363
li 1680784
Pro@@ 1680666
qu' 1679631
eyes 1678878
ы 1677237
ingår 1676083
= 1675331
ро@@ 1673061
tri@@ 1670363
because 1670308
own 1669506
took 1669129
dal 1668183
kan 1664312
över 1662864
Life 1662503
oli 1662387
0 1662351
side 1661870
men@@ 1661216
og@@ 1659246
や 1656950
po 1655678
пере@@ 1654946
23 1652688
pe 1651396
ren@@ 1649044
sus 1648667
kwadrado 1647961
ge@@ 1647015
ни@@ 1646757
ний 1645276
L 1643824
end@@ 1643389
ow@@ 1641996
к@@ 1639015
ire 1638603
Estados 1637853
rehiyon 1636413
World 1636165
д@@ 1634843
את 1633542
trong 1631441
ov@@ 1630977
Los 1630835
ors 1630187
ert 1629243
ą 1628770
ou@@ 1628068
mo@@ 1628065
cor@@ 1627923
ure 1623703
ting 1620217
same 1619442
Unidos 1618537
col@@ 1617254
yuta 1616237
au@@ 1615762
А@@ 1615407
pe@@ 1615041
familia 1614546
oder 1610262
family 1608941
aus@@ 1606588
pl@@ 1603822
won 1601911
kada 1601336
ies 1599708
including 1599484
よ 1599244
和 1597811
été 1596331
ats 1595322
din 1593653
zur 1592742
ok@@ 1592022
Hapit 1591689
nalukop 1591642
Th@@ 1590715
О@@ 1590313
af 1590275
ma@@ 1588478
ли@@ 1587601
* 1583419
ran@@ 1580630
ä@@ 1580294
kasadpan 1580280
ном 1578627
dat 1577949
á@@ 1576250
City 1574746
dapit 1574075
amb 1573992
ele 1571814
ser@@ 1570493
set 1569810
fer@@ 1567802
Per@@ 1564658
bl@@ 1559858
über 1555952
ay 1555712
sl@@ 1555087
let 1554713
August 1552879
and@@ 1551834
Mon@@ 1550988
sin 1550361
called 1548663
co 1548353
zen 1548027
f 1547442
ents 1545070
She 1544703
till 1544057
'm 1541621
here 1539547
Re@@ 1539090
од 1538064
í@@ 1536275
att 1535622
away 1530616
As 1530345
National 1530089
September 1529723
nahimutangan 1529665
min@@ 1529078
1999 1529011
school 1528511
ga 1528314
tr@@ 1525168
found 1522553
sz@@ 1519430
tions 1516986
что 1509962
ur 1509684
going 1508819
face 1508682
berg 1507355
har@@ 1504647
ш@@ 1501975
gen@@ 1500563
B 1500371
den@@ 1499797
или 1498880
ore 1498364
ari 1497244
26 1496122
ep@@ 1495324
tawo 1495028
tor@@ 1494991
rec@@ 1494596
landet 1493795
$ 1493157
می 1492771
very 1490809
ino 1490792
ben 1490677
28 1487164
sur@@ 1486652
much 1486383
so@@ 1484224
50 1480206
up@@ 1475058
seu 1472531
cre@@ 1471379
á 1469990
né 1469346
ner 1467675
no@@ 1467209
ese 1466453
genus 1465701
ger@@ 1465270
大@@ 1463511
to@@ 1462362
left 1459861
ella 1459187
då 1457878
fl@@ 1457365
Lake 1456844
these 1455126
Le@@ 1454966
hand 1453088
lo@@ 1453006
River 1451567
nella 1451007
April 1450669
ved 1448077
la@@ 1447077
res 1445633
者 1444934
ж@@ 1444150
idae 1443185
Er 1443181
که 1439437
wurden 1437518
club 1437384
ley 1436950
ny 1436685
ci 1436180
ea 1432851
sion 1431522
ь 1430963
27 1430927
ку 1430517
Ber@@ 1427267
ot 1426403
્ 1425194
havet 1424945
States 1420660
ala 1420635
ast@@ 1418355
ная 1418343
ara 1417148
ard 1416900
ian 1416769
後 1414856
он 1414852
since 1414656
pas 1413905
Washington 1412830
Cor@@ 1412729
int@@ 1412433
năm 1411011
last 1410271
ance 1410143
pen@@ 1410041
ef@@ 1408582
ach@@ 1408387
ville 1406924
ena 1405648
Park 1405584
ngan 1405476
ah 1404980
After 1403016
有 1401833
có 1400341
ker 1398627
mu@@ 1397651
8@@ 1397006
το 1396610
wie 1395256
tar@@ 1394856
ev@@ 1393781
ely 1393462
wy@@ 1393385
ский 1391827
del@@ 1391210
ever 1391112
ні 1389330
life 1389063
lungsod 1388611
ри@@ 1386819
ò 1386234
Catalogue 1385710
November 1385603
ра@@ 1383705
make 1383596
each 1382126
o-@@ 1381955
м@@ 1381818
της 1380364
line 1380112
sol@@ 1379213
eh@@ 1378541
En@@ 1377649
вы@@ 1376006
bu@@ 1375365
sen@@ 1373171
』 1372860
too 1371292
ler 1370178
ava 1368763
alle 1368630
『 1367752
ら 1367082
ни 1366486
war@@ 1366142
’ 1365294
delle 1365028
1998 1363117
ane 1362370
never 1361480
その 1361215
mi@@ 1359096
pol@@ 1358396
unter 1356355
ah@@ 1356018
met@@ 1354056
our 1353354
lich 1353085
ade 1352559
cer@@ 1351407
hij 1349925
tro@@ 1349664
room 1347523
ung@@ 1346209
pri@@ 1346133
ó@@ 1346124
tes 1346104
take 1345163
niini 1344598
ger 1344275
yn 1342082
1990 1341789
familjen 1339369
number 1339355
all@@ 1339110
ating 1338504
began 1337217
то@@ 1336879
home 1336602
ende 1336462
city 1336285
ani 1336159
me@@ 1333134
Det 1332920
了 1331104
released 1329039
comme 1328559
У@@ 1328504
played 1328324
held 1327985
ка@@ 1327805
isch 1326995
king 1326969
final 1325991
azione 1324464
ле@@ 1323670
South 1323361
tot 1323025
fi@@ 1321640
wor@@ 1320519
az@@ 1319622
על 1319542
ö@@ 1319506
29 1319199
ти@@ 1318736
School 1318726
ling 1317810
under@@ 1317779
ili 1317129
行 1314971
ro 1314754
его 1314382
reg@@ 1310862
г@@ 1310674
dass 1310087
id 1307392
several 1306788
日本 1306498
9@@ 1306438
ito 1306103
ill@@ 1305410
ship 1305270
bre@@ 1303473
sal@@ 1303437
want 1303208
ys 1302977
мо@@ 1302977
во@@ 1302425
ut 1301194
S 1301045
| 1299729
series 1298431
another 1296786
ным 1296647
pat@@ 1293156
adas 1292523
huvudstaden 1291877
più 1289747
के 1289222
의 1286008
fu 1284933
ri 1284780
mor@@ 1284143
för 1282865
ния 1281772
eng@@ 1281381
Qu@@ 1281255
state 1280472
X@@ 1276447
року 1275925
ho@@ 1275514
pay 1275424
上 1274893
ке 1273565
ab 1273062
four 1270302
3@@ 1270097
Mor@@ 1269893
pu@@ 1269406
sobre 1267707
ona 1266542
су 1265627
nasod. 1265624
Es 1265083
10@@ 1262566
ven@@ 1262546
ч@@ 1260652
31 1258830
от@@ 1258215
anche 1257786
7@@ 1257113
bes@@ 1257102
eren 1256265
tre@@ 1255918
и@@ 1255208
ates 1253645
ba 1252873
zi@@ 1252593
bat@@ 1250973
aw@@ 1249134
1996 1248880
mis@@ 1248098
ko 1247977
populasyon 1247415
pa@@ 1246701
good 1246208
ש@@ 1245132
40 1244891
ungs@@ 1244433
släktet 1243144
ants 1242858
など 1242377
fe@@ 1241206
ez@@ 1240158
е@@ 1239121
res@@ 1237378
1997 1236773
2018 1236075
Com@@ 1234967
ista 1234863
ont 1233132
お 1232924
Kar@@ 1232886
dra@@ 1231975
band 1231902
sono 1231446
deux 1231160
those 1226152
ence 1226137
came 1226050
lichen 1225567
ta@@ 1224446
Dunay 1223951
game 1223554
как 1223268
ades 1223034
think 1222882
ost@@ 1222117
're 1221535
ay@@ 1221525
р 1221181
6@@ 1220753
sakop 1220683
cu@@ 1220229
chen 1218213
s-@@ 1217618
Mal@@ 1217485
1992 1217297
beskrevs 1217283
Årsmedeltemperaturen 1216989
population 1216762
rel@@ 1216761
pal@@ 1216714
varmaste 1216686
vol@@ 1216628
medeltemperaturen 1216508
kallaste 1216497
су@@ 1216000
France 1215535
Her@@ 1215187
б@@ 1215023
liche 1214015
kon@@ 1213945
ubos 1213516
п@@ 1213157
ма@@ 1212336
н 1211392
ski 1206858
underarter 1206756
mal@@ 1206438
Be@@ 1206077
out@@ 1205683
ska 1205129
went 1205046
aire 1204247
vor 1203073
على 1202905
For@@ 1202515
ern 1200581
ла 1199959
mer 1199878
house 1199459
Se@@ 1199239
ero 1197997
leg@@ 1196817
eller 1196588
nahilalakip 1196386
auf@@ 1196163
early 1196063
cal@@ 1195743
́ 1195533
В@@ 1194502
looked 1193863
ingen 1193152
1994 1192809
ura 1191272
lui 1191214
Di@@ 1190447
amihanan 1190422
Inga 1189833
1995 1189648
hi 1189083
г 1188282
gar@@ 1188208
D 1187801
де 1185490
millimeter 1184290
art 1184237
2@@ 1184080
а@@ 1183590
El@@ 1183418
ein@@ 1183167
ical 1182204
Ne@@ 1182141
ب@@ 1182079
й@@ 1181679
för@@ 1181251
Man@@ 1181173
fra 1180629
この 1180610
town 1180265
lan@@ 1179234
dar@@ 1178841
ми 1177172
ns 1176238
invånare 1176081
Jahr 1176002
sw@@ 1175814
listade 1175422
ko@@ 1175276
State 1174945
ste 1173845
League 1171495
Aus@@ 1170821
ل@@ 1169470
ice 1168711
uska 1168680
ye 1168448
world 1168098
bir 1167620
ora 1166586
1991 1165492
something 1164582
thought 1164436
May 1164290
genomsnitt 1163909
Or@@ 1161948
ami 1161571
torraste 1161370
årsnederbörd 1161340
Genomsnittlig 1161320
regnigaste 1161300
ell@@ 1161128
Na 1160187
kar@@ 1159387
ę 1158183
ik 1156976
sel@@ 1156321
na@@ 1156186
이 1153696
つ 1153664
kabanay 1152873
small 1151997
ма 1151318
ck@@ 1150701
aj@@ 1149872
Bo@@ 1148234
januari 1148020
mas@@ 1147180
ques 1146159
kvadratkilometer 1145868
bas@@ 1145473
esta 1145364
Het 1143629
br@@ 1143477
metro 1143013
por@@ 1142281
ative 1141281
following 1138713
ли 1138702
fin@@ 1137571
го@@ 1137157
ud@@ 1136643
و@@ 1136561
ль@@ 1135924
kaj 1134508
ku 1132797
less 1131835
water 1130974
got 1130832
ok 1130708
Am@@ 1130615
asked 1130111
British 1130011
hini 1129520
ell 1129466
И@@ 1127607
Una 1127178
ton@@ 1125225
ked 1124300
old 1124098
sam@@ 1123805
án 1123193
vom 1121061
Creek 1120678
1993 1120632
station 1120046
Su@@ 1119754
ón 1118854
ди@@ 1117656
They 1116062
antes 1115387
sidlakan 1115297
group 1114675
mel@@ 1114272
д 1113407
few 1112915
bra@@ 1112246
ong 1112232
little 1110966
ва 1110801
ess 1108619
local 1107932
komon 1106759
talagsaon 1106490
ul 1105908
along 1105882
Cerro 1105083
є 1104921
gel@@ 1104204
Col@@ 1103864
့ 1103234
former 1101313
waren 1101049
based 1100485
cur@@ 1098864
을 1098588
father 1098444
部 1097708
ien 1096962
sil@@ 1096402
durante 1094820
К@@ 1093986
we@@ 1093872
ty@@ 1093784
iz 1092761
他 1092225
care 1092163
ico 1091749
dari 1091524
що 1090794
osa 1090388
ju@@ 1089340
subspecies 1088976
hi@@ 1087209
Har@@ 1085883
ics 1085613
tive 1085095
village 1084637
hat 1084468
га 1082909
られ 1082728
На 1082655
ве@@ 1082256
gli 1082009
ais 1081566
ти 1079652
U 1079319
North 1078763
ため 1078255
ol 1077830
noch 1077686
form 1077594
kahenera 1076944
var@@ 1076854
ü@@ 1076512
nom 1076325
tra 1076221
ées 1076058
大 1075838
system 1075328
Espesye 1075055
pan@@ 1073597
vor@@ 1073356
این 1072915
pada 1072174
tu 1070033
March 1069381
vis@@ 1068757
oper@@ 1066963
х 1066670
dia 1066198
км 1065998
wala 1065286
kinadul-ang 1064694
nalista 1064294
ст@@ 1063826
show 1063644
ação 1063605
dakong 1063308
ono 1062976
June 1062446
gihulagway 1062057
cia 1061859
sa@@ 1060864
His 1059883
sin@@ 1059211
4@@ 1058587
single 1058554
star@@ 1058252
ry@@ 1058219
1989 1056702
nur 1056100
val@@ 1055732
ness 1054914
ki@@ 1054660
Agosto 1054510
niya 1054188
music 1051664
hal@@ 1051108
ib@@ 1050913
total 1049666
1980 1047962
juli 1047465
市 1047308
ew@@ 1047081
том 1046120
ginhulagway 1045894
то 1045650
Nel 1045377
fre@@ 1045283
Г@@ 1045087
Gu@@ 1043615
siak 1043238
Suba 1043210
lat 1042879
uno 1042814
Tra@@ 1042270
5@@ 1041055
far@@ 1040759
karon 1040344
dels 1038742
Pagka 1038646
look 1037986
này 1037764
ю@@ 1037220
July 1037091
January 1036850
де@@ 1036695
ding 1036328
Sal@@ 1035259
에 1034625
П@@ 1033097
hu@@ 1032281
ప 1030312
1945 1029823
air 1029801
ו@@ 1029703
ila 1029014
body 1028078
tur@@ 1027574
ł@@ 1027251
October 1026656
mit@@ 1025011
ло@@ 1024930
ру@@ 1024303
Waray 1023683
nakalista 1022961
next 1022716
dunay 1022406
ind@@ 1022157
ку@@ 1021944
ба@@ 1021866
gihabogon 1021430
kinahabogang 1021426
Q@@ 1021140
н@@ 1020873
lin@@ 1020250
gen 1020069
named 1019892
forma 1019846
при 1019818
naam 1018470
ion 1018465
There 1018398
dan@@ 1018094
های 1017995
field 1017962
aria 1017163
Paris 1016166
bur@@ 1015948
ное 1015843
large 1015796
та@@ 1015652
ции 1015148
fait 1015102
ions 1015093
را 1013072
iv@@ 1010655
бо@@ 1010483
Co@@ 1010410
ми@@ 1009794
E 1009593
patag 1007626
గ 1005719
cu 1005532
vo@@ 1004749
Vor@@ 1004567
located 1003553
nu 1003476
Gra@@ 1003475
familie 1002733
William 1002716
all' 1002584
kl@@ 1002015
tal@@ 1001847
ker@@ 1001077
seiner 1000118
bal@@ 999295
ф@@ 998565
London 998539
cat@@ 997361
rat@@ 996671
West 996385
served 995244
地 994754
Mo@@ 994222
ère 994154
At 994097
ban 993493
started 990822
ette 990708
let@@ 990088
은 989612
sowie 989523
habagatan 989037
R 988518
hol@@ 988191
company 987149
Д@@ 987120
soort 987065
nar@@ 987016
ip@@ 985415
му 985170
'll 983106
名 982346
Han 982329
раз@@ 981944
Ro@@ 981819
ve@@ 981634
ме@@ 980100
De@@ 979064
ets 978945
об@@ 978223
high 978208
hel@@ 977654
night 977516
eri 977304
aba 976175
ils 976173
gro@@ 975374
aceae 974797
å 974515
sing 974439
point 973925
Ex@@ 973714
War 973144
ва@@ 973109
aber 972982
các 972950
sure 971620
1988 971326
wa 970566
か 970473
public 970296
ck 970144
+ 969577
60 969429
Nach 969239
ban@@ 967873
第 967762
br 966274
ner@@ 966228
stra@@ 965936
ij@@ 964914
car 964296
ну 962999
ο 962794
T 962632
III 962088
š@@ 960946
illa 960662
chi@@ 960477
every 960415
Bel@@ 960276
hor@@ 960245
ov 959422
moved 958661
of@@ 958049
jest 957728
say 957614
ú@@ 957604
estas 956906
την 956487
Canada 955832
ier@@ 955815
ola 955433
sein 955343
Т@@ 955142
họ 955028
1970 954791
ha@@ 954413
mai 954025
ste@@ 953603
December 953438
built 952085
ete 952056
why 951593
bi 950729
· 949991
ka@@ 949873
ción 949230
ji 949064
song 948224
can@@ 948201
without 947142
ischer 944859
jako 944829
ت@@ 944306
general 944272
land@@ 943667
ub@@ 942589
Mer@@ 942065
में 941800
ds 941745
го 941539
hatte 941376
х@@ 941242
ใน 939558
using 939288
dem@@ 939197
uk@@ 938785
should 938530
dengan 937731
seine 937589
Mc@@ 937517
endo 937375
प 937234
ii 936829
need 936689
sar@@ 935714
По@@ 935144
bro@@ 934950
ky 934409
ela 932930
wasn 932393
member 932039
suo 931760
ي@@ 931589
ל@@ 930396
turned 930346
pod@@ 930014
си@@ 929868
though 929074
ском 928929
пре@@ 928738
ff@@ 928117
ey 928046
па@@ 927930
über@@ 927299
años 926977
George 926788
via 926777
Cal@@ 926366
Bal@@ 925003
ā@@ 924557
within 924183
Mat@@ 924168
government 924102
ア@@ 923833
rit@@ 923485
ran 923357
Pol@@ 923012
n' 922928
building 922807
aj 922384
ae 922221
if@@ 920612
Saint-@@ 920494
century 920112
të 919986
Jahre 919411
200 919027
те@@ 918593
ue 918524
knew 917910
P 917849
ет 917696
top 917494
ensis 916685
fo@@ 916273
年) 916053
felt 915996
cette 915597
light 914710
once 914663
wanted 914194
те 914107
don@@ 914033
リ@@ 913558
meg@@ 913235
James 913226
лі@@ 912704
usa 912160
ama 910529
1987 910262
anti@@ 909859
sig@@ 909586
1986 909546
ник 909538
przez 909294
do@@ 908543
pero 908387
five 907383
best 906507
Paul 906176
из@@ 906054
Ma@@ 905831
出 905734
ル@@ 905549
ce@@ 904579
College 903857
han@@ 903735
sor@@ 903140
Se 902311
son@@ 901731
わ 900765
died 900480
ним 900465
sia 899823
р@@ 899805
put 899750
més 899268
mi 898751
ских 898658
However 898276
position 897471
gr@@ 897212
为 897007
dalla 896729
ها 894455
ches 894308
front 894096
M 893893
ă 893672
ido 893188
1@@ 892810
cap@@ 892602
kabungtoran 892562
ima 892488
ин@@ 891886
С 891866
Gar@@ 891810
pra@@ 891796
מ@@ 891212
ion@@ 891060
base 890066
pr@@ 889740
bel@@ 889593
да@@ 889426
إلى 889417
Bi@@ 889192
1984 888265
ines 887889
kor@@ 887520
ute 887432
ku@@ 887242
mé@@ 886793
received 886741
家 886501
же 886338
і@@ 886309
ase 886281
loài 885880
cas@@ 885853
ь@@ 885695
m. 885517
inc@@ 885181
ali@@ 885044
12@@ 884295
са@@ 884292
.. 884142
No 884069
tan@@ 883853
D.C. 883536
David 883403
death 882820
go@@ 882246
ní 881938
ich@@ 881661
Val@@ 881405
original 881356
erte 881327
1985 880979
fel@@ 880163
tel@@ 880074
cho 879597
yl@@ 879402
है 879108
roz@@ 878954
amente 878200
kal@@ 878049
Lu@@ 877196
eerst 876903
Elle 876235
sten 875937
Robert 875411
ori 875081
gre@@ 875009
nahimutang 874983
International 874850
pel@@ 874699
1. 874304
F 871146
post@@ 870662
è@@ 870122
ern@@ 869695
eur 869244
kh@@ 868986
saw 868460
national 867654
inn@@ 867317
gl@@ 867179
main 866986
ook 865706
子 864588
att@@ 862251
open 862131
major 861107
different 860948
For 860374
一@@ 860308
ス@@ 859884
serie 859794
ства 859631
play 859605
zwei 859239
kondado 858281
また 858206
sou@@ 857587
tre 857549
ние 857541
από 856398
service 856218
ator 856103
ism 855789
bor@@ 855414
Б@@ 855120
М@@ 855015
sentro 854726
よう 854554
himself 854458
G 854054
Sie 853841
February 853417
ging 852977
ped 851669
fil@@ 851352
Ge@@ 851168
behind 850723
cui 850108
Kon@@ 848693
adalah 847842
entes 847108
ario 846945
District 846089
マ@@ 845520
ched 845406
ris@@ 845329
أ@@ 844110
wo@@ 844096
N 843236
ador 843205
Mu@@ 843204
prima 841989
ская 841738
nog 840797
oj 840611
ster 840380
al-@@ 840324
1960 840159
ari@@ 839639
bil@@ 839578
со 839404
ної 838846
children 838361
1982 838183
ў 837462
include 836950
book 836869
также 836693
Tor@@ 836069
ben@@ 835119
ที่ 834825
чи@@ 834006
Bu@@ 832931
loc@@ 832886
É@@ 832689
pré@@ 832657
X 832275
500 832267
solo 832241
ную 832121
pas@@ 831586
пи@@ 830923
г. 830501
л@@ 829988
η 829882
seen 829840
1983 829835
stri@@ 829216
members 828987
ters 828752
emb@@ 828376
ду@@ 827381
dit 826519
Un@@ 826465
ann@@ 825645
ars 825440
fied 825164
1944 824996
від 824899
ned 824857
together 824671
tor 824059
ん 824058
Charles 823950
blev 823912
unter@@ 823721
ones 822191
ros 821957
Fre@@ 821949
1972 820805
General 820409
ug@@ 819966
Ser@@ 819670
国 819637
help 819396
ken@@ 819346
Am 818935
Ка@@ 818808
1975 818491
Santa 817731
eines 817504
č@@ 816918
Tri@@ 816843
oni 816596
Ad@@ 816185
not@@ 815701
1979 815534
dalam 815263
ders 815165
vers 813927
dr@@ 813885
told 813788
anni 813547
Pal@@ 813527
san@@ 813200
се@@ 811337
tig@@ 811061
les@@ 810990
año 810608
所 810227
כ@@ 809162
ige 809029
была 808829
ف@@ 808798
ды 808739
fra@@ 808279
TV 808192
anos 807659
stand 806908
mother 806260
もの 805986
fu@@ 805962
با 805839
Ein@@ 805150
far 804943
hands 804661
ich 804234
nej 803971
til@@ 803581
también 803031
rol@@ 802961
ан@@ 802737
enc@@ 802679
yn@@ 802532
ny@@ 802318
aren 801674
St. 801622
1981 801587
gave 800890
ster@@ 800886
était 800879
13@@ 800606
Po@@ 800276
под@@ 800060
où 799712
hasta 799441
worden 799335
ow 798876
aron 798471
1976 798007
apan 797998
nes 797864
bij 796792
aut@@ 796435
き 796211
sta 796013
لل@@ 795770
Pebrero 795753
och@@ 795719
voice 795619
Е@@ 795565
ke@@ 795508
1974 795047
da@@ 794918
Trakten 794638
len 793550
Hunyo 793457
char@@ 793177
Island 792724
lat@@ 792693
district 792601
fe 792464
Ко@@ 792151
cit@@ 791657
across 791640
με 791565
having 791386
1968 791180
ber 790881
site 790531
Bur@@ 790491
sy@@ 790470
dy 790414
enti 790189
vid 789747
1978 788098
1973 787812
near 787762
ho 787164
oraz 787153
ez 786538
leur 786302
've 786241
80 785829
six 785562
ech@@ 785210
tell 783519
ков 783463
y-@@ 782973
During 782895
published 782605
へ 782536
untuk 782417
-S@@ 782319
und@@ 782114
zwischen 781902
en-@@ 781459
dont 781357
ple@@ 781250
州 781032
Un 780993
dec@@ 780855
等 780329
grande 780130
er-@@ 779544
были 779115
ng@@ 778921
bar 778500
Thomas 778352
really 778270
nombre 777757
), 777612
One 777469
j 777226
often 776511
bed 776047
ス 775683
desde 775432
cz@@ 775391
ziren 775302
Al 774964
être 774956
ла@@ 774218
ati@@ 773967
ong@@ 773811
ig 773696
California 773377
用 773299
че@@ 773240
ны 772926
Li@@ 772830
まで 772673
England 772665
Club 772407
times 772401
ici 772315
ité 771921
ras 771909
Tur@@ 771767
ves 771687
ů 771620
super@@ 771596
days 771167
fer 770289
football 770102
late 769474
ej@@ 769443
ba@@ 769342
iti 769192
Ger@@ 768988
vel@@ 768973
lig@@ 768944
power 768019
wetenschappelijke 767844
find 767801
opened 767286
gepubliceerd 767127
nen 766312
Ac@@ 765791
และ 765077
mes@@ 765023
Jahren 764860
kini 764673
ron 764215
被 763947
時 763861
га@@ 763503
ait 762681
ver 762365
ille 761778
мі@@ 761581
wi@@ 761571
Em 761549
moment 761489
Pi@@ 761319
Pre@@ 760933
ng 760810
ier 760346
было 759536
cy 759256
1977 759119
nos 759011
given 758044
igen 758028
t-@@ 757671
wer@@ 757146
making 756773
kom@@ 756578
enough 756247
ты 756186
US 754041
З@@ 753840
egy 752870
ить 752764
val 752473
Cup 752055
ee 751997
mann 751721
ther@@ 751607
råder 751413
sent 750952
chi 750927
geldig 750813
Ф@@ 750518
多 750359
ges 749491
1971 748984
ron@@ 748974
Disyembre 748929
important 748801
provinsen 748705
Ш@@ 747771
hadton 747036
word 746980
lar@@ 746567
ego 746475
FC 746381
Hu@@ 746344
Me@@ 746212
gener@@ 745765
ен@@ 745541
third 745509
ció 745447
ров 745101
order 744522
dieser 744490
người 744371
included 744318
Hill 744075
hon@@ 744055
love 743680
hand@@ 743356
ב@@ 743298
下 743282
45 742221
ores 741955
sy 741862
oh@@ 741849
ms 741662
0@@ 740986
zione 740830
women 740449
Las 739953
Ter@@ 739936
naar 739049
1941 738392
性 738291
1969 737989
thing 735674
сто@@ 735616
Australia 734763
以 734539
House 734363
ство 734300
ц@@ 734288
ського 733888
э@@ 733842
stato 733727
kan@@ 733130
vin@@ 733002
enti@@ 732946
mag@@ 732514
1940 732465
ał 732412
Ober@@ 732227
tom@@ 732047
match 731741
ão 731476
Ph@@ 730922
partir 730872
eu@@ 729870
الم@@ 729858
might 729804
Sol@@ 729325
ком 729066
esa 729062
sm@@ 729052
1939 728917
mu 728759
nych 728730
中@@ 728511
Sam@@ 728508
zi 728309
время 727538
form@@ 727230
adtong 726681
million 726553
control 726428
ными 726233
1967 726142
record 725003
fut 724839
Peter 724799
ко 724217
Mac@@ 723640
zo 723186
beg@@ 722861
version 722620
wo 721881
disc@@ 721703
cro@@ 721698
Maria 721689
case 721561
jo@@ 721442
жи@@ 721299
vari@@ 721015
même 720770
French 720332
Kal@@ 719962
70 719910
Michael 719580
Sar@@ 719490
ria 719390
сти@@ 719217
Р@@ 719187
nik 718831
run 718681
học 718499
q@@ 718252
ellen 718124
len@@ 718014
cher 717799
ра 717647
1950 717492
As@@ 716875
gran 716324
wh@@ 716198
gegen 716125
pod 716118
après 715549
godine 715375
tw@@ 715248
線 715060
medyo 715033
ac 714975
35 713831
log@@ 713700
must 713606
си 713418
Film 713321
Bra@@ 713057
və 712565
pon@@ 712451
cel@@ 712086
Ang@@ 711209
English 711081
는 710683
ロ@@ 710514
dom@@ 710353
вер@@ 710319
Far@@ 709867
tion@@ 709436
lost 708898
бу@@ 708346
USA 707469
kin 707222
イ@@ 707148
1964 707096
India 707083
continued 706815
cm 706623
K 706103
sive 706039
lie 706031
1,@@ 705135
位 704997
године 704821
ž@@ 704687
Mas@@ 704683
ret@@ 704536
ки@@ 704167
ё@@ 704059
va@@ 703420
enden 703075
化 702941
90 702601
Reg@@ 701520
tin@@ 701428
red@@ 700725
Sa@@ 700660
jo 700655
нии 700561
ced 700159
山 700150
become 700101
country 699751
sig 699586
oz@@ 699566
kol@@ 699514
couldn 699177
ві@@ 699043
ly@@ 698874
הוא 698810
会 698804
وال@@ 698792
ole 698447
primer 698192
ção 697433
aring 697379
When 697293
п 697134
тов 697132
U.S. 696935
sel 696790
カ@@ 696757
ral 696504
ently 696352
ть 696345
pla@@ 696031
set@@ 695946
närheten 695850
år 694868
Si@@ 694693
Grand 694631
不 694560
está 694542
000 694540
県 694335
dor@@ 694327
fin 693862
ク@@ 693814
یک 693671
зо@@ 693529
cl@@ 692693
1943 692685
ля@@ 692532
1965 692397
ff 692356
ive 692206
appeared 692133
Bor@@ 691728
kel@@ 691666
ania 691633
ments 691353
kt 690591
give 690190
ности 690045
fa@@ 689798
ở 688997
ology 688894
Br@@ 688455
pul@@ 688347
rat 688019
đầu 687979
kilometer 687914
production 687613
nome 687601
lar 687558
aciones 686978
ily 686831
Land@@ 686778
zu@@ 686680
Vi@@ 686284
ey@@ 686262
ham 686127
indi@@ 685964
Ru@@ 685455
uz@@ 685284
always 685199
uses 685198
King 684991
د@@ 684778
ста@@ 684309
bu 684120
je@@ 684045
East 683994
ide 683893
donde 683829
uit@@ 683673
Du@@ 683599
ك@@ 683591
mo 683234
worked 683081
前 682989
gamay 682903
hard 682734
list@@ 682707
Bre@@ 682578
än@@ 682050
ze@@ 681796
ació 681373
pt@@ 681094
elles 681086
Runt 680874
contra 680860
נ@@ 680542
స 680507
America 680261
ска 679796
dam@@ 679553
vi 679312
ua 679165
asi 679124
ст 679073
almost 678689
1966 677798
bol@@ 677794
Sp@@ 677735
net 677619
rock 677147
而 677111
degli 676788
gest@@ 676750
田 676629
ll@@ 676424
stat@@ 676145
ному 676060
cul@@ 675941
sous 675914
次 675903
Als 675427
Berlin 675392
sem@@ 675170
bit@@ 675050
law 674614
inst@@ 674425
ば 674423
1942 674101
half 674005
tres 673699
би@@ 673503
woman 673197
gri@@ 673134
Kor@@ 672479
pet@@ 672204
— 672133
nov@@ 672089
fac@@ 671891
nes@@ 671329
為@@ 671318
也 671153
Mi@@ 670616
black 670182
Kom@@ 670019
ake 669839
Europa 669249
principal 668842
ello 668399
habagatan-kasadpan 668222
Lac 668137
H 667975
pun@@ 667820
На@@ 667669
aussi 667376
Stadt 667247
things 667130
tubig-saluran 666651
rest@@ 666640
trans@@ 666635
ts@@ 666533
ish 666410
32 666274
amihanan-kasadpan 666168
cou@@ 665381
роз@@ 665309
เป็น 665247
ту@@ 665188
ris 665097
Royal 664928
sis 664804
enne 664474
大学 664196
να 663835
65 663552
한 663330
đã 663317
Zeit 663156
jedoch 663056
não 662948
geb@@ 662937
cht 662764
ラ@@ 662551
хо@@ 662311
oma 661935
nor@@ 661391
ç@@ 661160
fa 660908
également 660632
plat@@ 660472
fire 660422
Union 660391
Inter@@ 660184
ori@@ 659885
По 659722
Dar@@ 659533
alors 659130
али 658404
Po 658285
appar@@ 658140
ของ 658025
dro@@ 657852
career 657588
Х@@ 657538
högsta 657494
Wal@@ 657371
rig@@ 657265
however 657016
Pat@@ 656639
1962 656596
adi@@ 656465
với 656274
wood 655685
amento 655565
works 655282
ют 655108
ill 654852
под 654408
better 654233
Te@@ 654185
seit 654022
lia 653823
Dam 653800
ersten 653769
ски 653760
ida 653668
ان 653567
returned 653499
Auf@@ 653481
hat@@ 653134
内 653127
ps 653015
anything 652840
d-@@ 652827
German 652612
pped 652565
bet@@ 652378
mes 652359
premier 652317
1963 652212
close 652109
せ 651989
organiz@@ 651935
ła 651764
Gi@@ 650930
ン 650803
1948 650678
dy@@ 650444
ту 649798
Э@@ 649767
style 649151
ides 649115
punkten 648960
nothing 648841
ova 648803
vo 648699
course 648396
Min@@ 647881
ud 647837
зи@@ 647603
A. 647231
rin@@ 646908
ش@@ 646576
ose 646314
cha 645975
pur@@ 645914
ture 645613
history 645563
eni 645090
dopo 644044
Tar@@ 643537
бе@@ 643286
my@@ 643076
road 642558
coun@@ 642379
eri@@ 642034
ż@@ 641821
married 641573
nia 641354
ace 641229
dre@@ 641073
ن@@ 640968
alt@@ 640904
م@@ 640866
wa@@ 640529
uto 640287
Division 640089
ties 639540
Europe 639301
fal@@ 638762
エ@@ 638433
ford 638228
autres 637731
Met@@ 637706
ske 637592
1946 636686
dig@@ 636294
som@@ 636118
mind 636017
س@@ 635773
Az 635762
す 635654
volt 635448
i-@@ 635445
ром 635407
ainsi 634959
но-@@ 634868
west 634563
vy@@ 634546
ili@@ 634518
1920 634445
feel 634232
ج@@ 633924
van@@ 633898
Louis 633640
ain 632907
vez 632893
ule 632778
ira 632750
Street 632462
1956 632036
win 631474
sk 631299
cam@@ 631217
dri@@ 631026
nu@@ 630844
games 630831
taken 630417
dic@@ 630409
ł 630352
Bas@@ 630054
ン@@ 629606
inen 629526
ні@@ 629469
seus 629418
ги@@ 629386
як 629301
Lo@@ 629268
në 629203
bo 629054
sions 628865
low 628753
की 628506
support 628423
arch@@ 628184
pro 627922
mar 627826
fine 627519
nat@@ 627483
among 627259
ide@@ 627093
cada 627035
シ@@ 626830
1958 626787
does 626604
gew@@ 626384
social 626214
idea 625950
region 625744
plan 625728
vic@@ 625166
augusti 625110
ages 625095
1961 624996
live 624971
He@@ 624902
щ@@ 624877
already 624656
established 624603
Mel@@ 624568
yt@@ 624379
Can@@ 623912
nem 623886
生 623531
inside 623402
real 623221
är@@ 623150
looking 622946
स 622945
round 622944
others 622190
ako 622035
hold 621785
их 621743
ي 621667
China 621097
ges@@ 620938
ド@@ 620886
lit@@ 620859
1.@@ 620762
international 619631
1918 619627
cie 619611
med@@ 619555
році 619501
the@@ 619345
長 618987
ק@@ 618131
آن 617924
period 617898
art@@ 617633
ust@@ 617305
top@@ 617133
sum@@ 616963
და 616748
kat@@ 616495
guerra 616455
0,@@ 616171
Unter@@ 615601
gesch@@ 615544
ć 615478
enn@@ 615458
ін@@ 615375
uje 615331
ord@@ 615087
Pri@@ 614933
został 614920
fol@@ 614578
1938 614041
Kat@@ 614038
Ri@@ 613738
indic@@ 613688
cio 613658
onder 613535
Z 613180
ast 613138
Hol@@ 612835
lic@@ 612715
stor@@ 612644
video 612522
ー@@ 612144
etwa 611793
vit@@ 611648
ца 611087
에서 611030
Point 610764
ered 610618
mut@@ 610189
High 610104
level 610064
Kūh-e 610054
great 610029
1930 610027
program 609798
tahun 609717
Est@@ 609054
え 608268
이@@ 608256
これ 608172
мен@@ 607559
role 607249
joined 607174
popular 607117
ren 607069
від@@ 606979
م 606807
co-@@ 606684
14@@ 606620
juni 606496
munisipyo 606450
Ма@@ 606069
title 605934
Music 605798
му@@ 605754
non-@@ 605689
las@@ 605564
ト@@ 605470
são 605468
ше@@ 605310
stre@@ 604751
ots 604555
300 604322
white 604253
represent@@ 604041
Richard 603695
ically 603672
än 603583
ці 603129
Hor@@ 603126
working 602966
だ 602956
från 602942
1959 602892
ota 602723
ル 602549
ft 602451
story 602411
Joseph 602300
Des@@ 602050
written 601776
wal@@ 601646
力 601544
least 601515
acc@@ 601277
keep 601251
fen 600567
ont@@ 600553
points 600539
inf@@ 600451
uso 600426
player 600413
appro@@ 600051
ition 600048
iert 599807
mouth 599408
eu 599149
rac@@ 599073
edi@@ 599044
ens@@ 598884
Henry 598847
wordt 598744
1954 598648
roce 598422
hogy 598379
Records 598112
ッ@@ 598108
פ@@ 598004
ность 597894
ס@@ 597531
։ 597410
produced 597361
esi 597331
dat@@ 597213
ської 597164
же@@ 596910
sv@@ 596530
Н@@ 596227
Ros@@ 596219
primera 596071
ric@@ 596064
Association 595554
ح@@ 595200
So@@ 595087
ар@@ 595054
eve 595024
bien 594768
Ben@@ 594721
バ@@ 594321
office 594219
Ur@@ 594088
ر@@ 594010
Tr@@ 593866
Mexico 593747
Company 593702
mot@@ 593651
gal@@ 592931
أن 592720
после 592672
1947 592611
eli 592542
及 592479
drei 592347
finale 592323
Pr@@ 591399
reached 591399
2,@@ 590149
students 590053
ä 589705
Art 589663
urs 589618
amihanan-sidlakan 589591
commune 589567
business 589496
Cas@@ 589290
Gal@@ 589258
ham@@ 589185
המ@@ 589127
コ@@ 589102
central 589026
ель@@ 588806
IV 588738
ér@@ 587629
nego 587621
sul 587348
wieder 587298
Ag@@ 587264
These 587251
José 587181
bs 587099
uta 586887
Bat@@ 586714
Central 586616
mars 586584
yes 586489
1957 586482
上@@ 586470
sec@@ 586044
Tre@@ 585858
by@@ 585729
enen 585637
mol@@ 585260
done 585008
capital 584873
вали 584778
1952 584770
1936 584722
Mag@@ 584630
stood 584431
τον 584420
ги 584281
۔ 584200
At@@ 584161
bat 584000
schaft 583949
ished 583937
ja@@ 583757
dio 583606
ну@@ 583438
media 583320
пе@@ 583166
sistema 582391
того 582364
由 582050
thre@@ 581923
eran 581705
byl 581526
various 581430
Cer@@ 581301
construction 581228
north 581083
cra@@ 580776
eurs 580331
anti 580173
Mil@@ 580107
full 579892
од@@ 579762
director 579750
living 579629
Air 579517
道 579388
že 579185
oa 579062
bul@@ 578778
re-@@ 578549
sky 578339
ется 578315
ish@@ 578284
young 578027
rest 577745
mal 577622
пу@@ 577390
hum@@ 577349
ша@@ 577280
1949 577121
hed 576798
mehr 576736
ful 576633
All 576478
nelle 576365
created 576323
wife 576294
première 576212
為 576212
fall 576200
1-@@ 576021
dist@@ 575923
partie 575858
hair 575168
ej 575035
sé@@ 575001
† 574975
cin@@ 574792
Pan@@ 574286
essere 574027
European 573820
race 573533
tak@@ 573374
pin@@ 573252
signed 573188
高@@ 572619
ring 572564
pot@@ 572287
dou@@ 572192
Л@@ 572182
cted 572066
ד@@ 572021
ici@@ 571637
軍 571550
ఉన 571423
Kan@@ 571169
party 571018
سال 571001
pela 570789
2-@@ 570605
uk 570596
ся 570364
community 570310
Char@@ 570253
onde 570154
ò@@ 570061
eo 570018
ven 569995
zy@@ 569989
isk 569981
merupakan 569971
ground 569909
# 569892
change 569785
த 569735
burg 569497
Ste@@ 569146
рас@@ 569035
ika 569034
standing 568827
回 568806
Terrängen 568558
soon 568551
radio 568494
الت@@ 568442
kin@@ 568193
প 568186
). 568141
medi@@ 567712
fen@@ 567578
hy@@ 567576
tem@@ 566672
niet 566114
arms 566031
tet 565908
either 565833
election 565629
3-@@ 565572
nym 565472
å@@ 565408
formed 565330
én 565309
ди 565222
friend 565209
ミ@@ 565195
mine 565034
San@@ 564308
quando 564197
ör@@ 564116
شده 563897
sav@@ 563831
1955 563794
data 563628
Tro@@ 563562
ique 563439
té@@ 563402
announced 563103
kom 562945
レ@@ 562922
bus@@ 562285
short 562088
ngalan 562002
она 561907
ment@@ 561735
Cam@@ 561687
heart 561635
事 561567
pil@@ 561415
tran@@ 561033
ort 560925
mil@@ 560860
За@@ 560832
ци@@ 560794
που 560543
mosunod 560460
olo 560454
mac@@ 560099
ز@@ 560065
cle@@ 559964
À 559655
hom@@ 559425
法 559295
similar 559177
december 559137
an-@@ 559065
action 559053
ський 559035
stop 558720
B. 558556
War@@ 558423
400 558327
36 557823
nas 557730
Award 557549
vier 557375
ника 557277
עם 557201
issa 556964
Š@@ 556942
Martin 556765
sidlakang 556764
aci@@ 556608
гу@@ 556381
ча@@ 556015
south 555987
fan 555861
coming 555787
constitu@@ 555578
Hal@@ 555563
anno 555435
Von 555406
33 555271
vida 555201
church 555085
although 554999
Ho@@ 554966
wrote 554946
ères 554843
川 554808
nam@@ 554599
ג@@ 554529
నుండి 554502
nit@@ 554492
taking 554456
in-@@ 554256
followed 554009
Fer@@ 553588
mod@@ 553540
нов 553309
raz@@ 552895
区 552408
maar 552407
א@@ 552394
ї 552292
elli 552288
else 551908
ago 551848
ony 551738
mad@@ 551574
ering 551537
tional 551415
不@@ 551206
1953 551203
plan@@ 551013
ler@@ 550881
hit 550807
mak@@ 550779
hilabihan 550633
жа@@ 550610
кон@@ 550320
ass@@ 550248
lasang 549985
Por@@ 549939
februari 549776
1919 549725
oso 549635
本@@ 549391
seinem 549244
eau 549150
tab@@ 549091
pit@@ 548997
viene 548713
ж 548678
作 548418
入 548374
development 548264
tour 547967
1933 547842
ismo 547739
lors 547133
ų 547049
1937 546808
fost 546577
someone 546547
рі@@ 546351
dag@@ 546290
viol@@ 546081
Christian 545967
test@@ 545727
Wil@@ 545634
â@@ 545615
words 545420
int 545358
Nor@@ 545315
学 545175
Party 545128
det@@ 545097
година 544790
oleh 544667
Church 544541
Gen@@ 544508
dal@@ 544350
lam@@ 544346
oh 544265
september 544248
liegt 544188
ick 544132
get@@ 543920
ap 543894
到 543589
2. 543295
sat 543275
ま 543100
seva 543062
Pra@@ 542979
parti@@ 542813
start 542720
port@@ 542701
Kol@@ 542678
出@@ 542589
20@@ 542588
戦 541906
yer 541831
車 541290
heard 541147
小@@ 541147
των 540859
che@@ 540468
ais@@ 540421
net@@ 540140
sli@@ 540137
type 539956
ciudad 539738
Festival 539329
situ@@ 539223
un' 539189
kann 538651
lé@@ 538457
ged 538367
oth@@ 538162
オ@@ 538032
Noruwega 537778
가 537770
wing 537572
free 537328
sat@@ 537325
Fin@@ 537320
enia 537206
י@@ 537117
bit 536866
Bro@@ 536670
considered 536630
عام 536560
brother 536553
rag@@ 536527
лю@@ 536515
目 536342
table 536321
ain@@ 536292
ей 536269
Jean 536182
Em@@ 536127
seinen 535946
spo@@ 535940
так 535935
ט@@ 535931
tant 535906
ран@@ 535770
person 535700
puis 535628
był 535334
yet 535243
kap@@ 535145
를 534794
class 534699
possible 534653
uri 534347
From 534200
का 534108
huvudsak 534013
wit@@ 534013
ч 533359
tam@@ 533130
本 533077
ала 532894
encia 532759
azioni 532336
J. 532225
pelo 532208
ras@@ 531939
ет@@ 531927
ел@@ 531901
termin@@ 531900
于 531764
Italia 531733
ция 531323
tä@@ 531315
toward 531228
zona 530948
ы@@ 530739
Um@@ 530724
ense 530705
ý 530659
eva 530566
Si 529881
ه@@ 529776
ג 529753
tả 529623
ナ@@ 528955
至 528836
radi@@ 528797
ard@@ 528787
loro 528768
Army 528730
Pet@@ 528667
air@@ 528471
高 528407
cent@@ 528157
cht@@ 528016
described 527896
diese 527878
mur@@ 527867
ih@@ 527755
past 527524
Ko@@ 527291
domin@@ 527016
später 527002
nei 526956
Estado 526924
natural 526884
alen 526843
To 526735
Ku@@ 526654
Bau@@ 526441
gran@@ 526413
ск@@ 526257
andere 526167
rie 526150
Hall 525886
Со@@ 525807
34 525784
maybe 525656
emp@@ 525611
Ottawa 525600
Bei 525433
分 525395
으로 525334
ат@@ 525311
新 525308
Francisco 525195
ai@@ 525021
trying 524717
1951 524695
Juan 524679
ui 524270
din@@ 524167
新@@ 524053
ши@@ 524002
eno 523952
aka 523800
体 523750
n-@@ 523570
三 523327
ums 523289
నాయి 522871
suba 522811
Ap@@ 522513
σε 522479
ло 522394
further 522372
park 522239
ini@@ 521630
political 521580
па 521354
regul@@ 521305
também 521154
Tour 521030
Van 520849
By 520511
lot 520461
ר@@ 520387
employ@@ 520342
kur@@ 520280
east 519407
kabukiran 519402
Dis@@ 519243
tained 519121
President 518803
వ 518788
lies 518514
pel 518434
数 518286
court 518251
ses@@ 518230
dar 518227
вал 518114
ನು 518022
tem 517897
度 517777
force 517775
date 517740
ח@@ 517655
à@@ 517405
ë 517402
ket 517227
playing 517050
aa 516933
aliz@@ 516478
ined 516376
於 516112
but@@ 516070
Mountain 515963
founded 515649
rá@@ 515600
Texas 515487
fic@@ 515284
ме 515284
onia 515222
4-@@ 515118
esc@@ 514874
present@@ 514860
produc@@ 514761
années 514711
Oslo 514672
row 514666
Loài 514619
ational 514526
human 514368
ï@@ 514280
1934 514152
Sel@@ 514132
ory 514110
це 514093
amp@@ 513676
య 513583
ната 513564
dol@@ 513551
ament 513550
best@@ 513538
ime 513529
都 513319
サ@@ 513306
television 513228
ق@@ 513211
вой 513147
ously 513107
nad 513105
ಲಿ 513005
nell' 512748
ità 512631
realiz@@ 512599
sup@@ 512580
says 512445
str@@ 512396
gy@@ 512326
로 512322
사@@ 511642
inger 511487
debut 511407
Council 511368
khoa 511305
feet 511213
1935 511010
speci@@ 510924
Hij 510911
Mad@@ 510827
cy@@ 510785
military 510703
38 510638
kam 510580
ній 510536
defin@@ 509951
ール 509949
tak 509601
0.@@ 509359
sit@@ 509196
sä@@ 509187
ove 509177
Mit@@ 508978
2.@@ 508952
peut 508748
cost@@ 508621
タ@@ 508538
kind 508490
beim 508414
lab@@ 507983
arri@@ 507717
contra@@ 507538
ê@@ 507521
president 507520
Bay 507443
tempo 507306
studio 507300
でき 507160
casa 507084
deze 506818
Im@@ 506746
где 506613
ל 506225
Center 506132
tried 505980
fast 505741
ciones 505661
leave 505651
Mai 505622
ath 505412
gia 505395
間 505357
17@@ 505311
ares 505151
iste 504841
äl@@ 504705
ences 504512
ת@@ 504435
skim 504283
5-@@ 504221
16@@ 504168
uch@@ 504143
vào 504090
owych 504048
ased 504025
exist@@ 503974
tis 503796
sus@@ 503630
Pas@@ 503549
Cap@@ 503418
б 503117
Ram@@ 502803
atus 502523
пер@@ 502503
い@@ 502408
या 502237
outside 502174
Nord@@ 501502
stone 501347
przy@@ 501285
West@@ 501100
bri@@ 500893
kao 500768
mist@@ 500739
almente 500218
гра@@ 500176
finished 500103
information 500056
esse 499848
στην 499645
ш 499430
instead 499351
Japan 499346
alt 499297
Pe@@ 499069
Ч@@ 498935
trois 498830
становника 498806
sebagai 498711
ex 498562
services 498553
november 498543
غ@@ 498528
zen@@ 498390
enta 498156
tá@@ 498152
15@@ 498131
وت@@ 498114
1929 498017
lan 497937
号 497883
， 497821
lis@@ 497748
त 497697
át 497650
और 497616
ما 497604
ニ@@ 497455
everything 497345
olog@@ 497140
że 496970
ín 496861
世界 496780
1914 496736
mentre 496681
havia 496595
sem 496207
minutes 496185
nak 496151
unds 496147
cas 496047
sido 496003
1917 495793
aires 495695
move 495406
finally 495356
division 495304
enza 494974
ani@@ 494918
r. 494803
You 494794
44 494790
fat@@ 494679
vat@@ 494391
Kinahabogang 494274
ха@@ 494266
1928 494253
ја 494245
Black 494199
Vol@@ 494009
ihre 493847
לי@@ 493841
any@@ 493727
ів 493667
kis@@ 493656
også 493635
elt 493604
daughter 493412
Rio 493401
liga 493148
continu@@ 493015
nun 493003
tic@@ 492883
Ob@@ 492742
lead 492466
пі@@ 492454
ص@@ 492379
нию 492059
山@@ 492055
proces@@ 492035
owe 491781
term 491731
gi 491682
list 491606
ability 491351
però 491335
과 491333
ying 491311
sab@@ 491186
“ 491152
lov@@ 491144
According 491109
़ 491049
tors 490936
ships 490934
Ende 490846
fueron 490803
کی 490684
ists 490468
mot 490388
squ@@ 490361
ierte 489955
使用 489844
tit@@ 489801
số 489722
Sz@@ 489500
” 489276
call 489113
oni@@ 488979
มี 488949
bed@@ 488930
Smith 488783
ské 488669
doing 488636
области 488540
ected 488527
Del@@ 488452
西@@ 488333
lugar 488311
grupo 488258
isme 488177
sound 488173
Sc@@ 488047
itu 487961
mis 487915
months 487802
mun@@ 487738
ę@@ 487637
eng 487621
Ni@@ 487571
owy 487549
bot@@ 487491
зна@@ 487462
1932 487386
} 487289
nica 487111
ня 486999
I. 486988
75 486838
ram@@ 486764
aos 486751
이다 486418
ep 486240
Не@@ 485712
之 485685
dark 485627
Про@@ 485591
से 485565
koji 485560
centre 485556
org@@ 485459
To@@ 485342
को 485273
Group 485218
ec 485204
{ 485149
ching 485100
ná@@ 484619
thành 484526
tie 484445
lin 484332
brought 484114
elected 484038
erste 483985
був 483839
Ку@@ 483701
ně 483643
section 483518
ott 483478
任 483358
girl 483123
stu@@ 483086
кой 483041
ju 483015
professional 483010
naj@@ 482947
ě 482846
Gr@@ 482648
下@@ 482450
ц 482288
Mol@@ 482273
vattendrag 482261
uc@@ 482069
Fran@@ 482059
64 482031
公@@ 482008
rin 481868
temps 481772
aten 481347
ock 481197
ع@@ 481157
present 480938
niining 480473
depuis 480471
1924 480355
center 480081
put@@ 480009
recorded 479866
lag@@ 479859
person@@ 479664
rap@@ 479465
forces 479443
ney 479255
With 479116
zy 478903
eni@@ 478859
ī@@ 478850
Angeles 478764
Su 478602
Tu@@ 478597
common 478556
сти 478305
Mit 478252
より 477838
ー 477707
closed 477696
Bol@@ 477611
acji 477290
wel@@ 477256
oph@@ 477129
país 477018
dest@@ 476984
ється 476914
ры@@ 476896
iki 476822
Red 476648
ards 476596
vest@@ 476585
学校 476461
za@@ 476454
Mga 476450
ав@@ 476392
Я@@ 476249
design 476181
ס 476080
release 476076
eux 475990
konnte 475706
hab@@ 475430
Es@@ 475368
contre 475316
tag@@ 475296
ward 475269
cuando 475195
日@@ 475174
Da 475030
Mount 474971
Museum 474864
needed 474763
الأ@@ 474741
sebuah 474688
oro 474677
село 474642
Western 474606
ские 474561
Ban@@ 474530
3,@@ 474417
tas 474380
Indian 474363
nem@@ 474244
kas@@ 474215
パ@@ 473895
jusqu' 473766
lim@@ 473682
act 473656
appointed 473586
ен 473525
tru@@ 473451
За 473171
水@@ 473162
S. 473161
event 472956
Han@@ 472885
ements 472885
Oktober 472834
ál@@ 472821
mort 472616
цы 472536
ihm 472266
че 472031
сы 472012
Cat@@ 471720
бі@@ 471679
inte 471630
arti@@ 471607
ag 471512
Championship 471501
dit@@ 471410
upon 471401
fri@@ 471119
gef@@ 471106
ving 471055
habagatan-sidlakan 471002
plaats 470957
ame 470919
ő 470830
той 470492
ls 470464
지@@ 470327
Indonesia 470100
42 469999
erin 469939
чи 469893
above 469846
dove 469802
ор@@ 469769
手 469597
ú 469591
arm 469457
etta 469430
있다 469348
uni@@ 469321
ين 469304
language 469270
ack@@ 469194
población 469190
bez@@ 469142
mus@@ 469094
stein 469074
二 468925
developed 468903
ū@@ 468884
キ@@ 468786
التي 468481
floor 468413
fact 468395
тан@@ 468254
ologie 468247
nord 468215
kam@@ 468209
ве 467964
tica 467936
中国 467732
tal 467730
tiên 467708
gan@@ 467494
turn 467291
48 467260
nap@@ 467218
banda 467026
για 466981
лет 466954
sau 466774
駅 466761
kit@@ 466612
prepar@@ 466526
lag 466333
Per 466311
sent@@ 466052
film@@ 466046
tiene 466043
había 465964
tot@@ 465936
heute 465597
町 465276
pulled 465170
ط@@ 465109
ман@@ 465042
Kam@@ 465012
cad@@ 464978
blood 464945
ラ 464903
ہے 464718
Sen@@ 464709
ните 464686
killed 464678
ending 464671
primo 464505
isen 464340
ath@@ 464289
37 464214
村 464129
ал@@ 464011
Road 463757
στο 463733
Gre@@ 463591
latach 463578
soci@@ 463519
plusieurs 463089
ized 462928
مع 462839
Bon@@ 462584
teen 462548
pres@@ 462547
ским 462539
nek 462516
We@@ 462302
nas@@ 462162
White 462111
uh@@ 462056
main@@ 461992
Society 461796
bek@@ 461770
mente 461567
Lin@@ 461504
Gro@@ 461470
pis@@ 461366
skiego 461345
iu 461329
Australian 461311
1931 461224
oj@@ 461033
otros 460959
dir 460925
sle@@ 460850
probably 460793
consider@@ 460770
vet@@ 460726
Kanada 460591
ה@@ 460439
return 460407
ului 460387
ash@@ 460247
ак@@ 460183
organis@@ 460051
ле 459857
decided 459795
ym@@ 459674
1921 459592
groupe 459522
lec@@ 459171
вала 458853
ское 458683
ear@@ 458671
ер@@ 458568
tis@@ 458476
tig 458448
bio 458446
Madrid 458439
usually 458166
pp@@ 458131
Men@@ 457965
vä@@ 457822
воз@@ 457757
1922 457747
research 457630
ції 457423
M. 457164
vir@@ 457118
port 457014
Province 456871
мен 456670
venne 456617
zich 456532
Hel@@ 456479
Nacional 456462
haben 456430
A-@@ 456215
equ@@ 456121
fun@@ 456037
է 456031
mayor 455983
Cro@@ 455917
τα 455885
機 455710
cru@@ 455408
Man 455264
seemed 455256
lang@@ 455238
tas@@ 455181
ем 455018
sho@@ 454866
big 454819
sing@@ 454661
alis 454499
oktober 454154
tanto 454066
Ham@@ 454054
1927 454014
seg@@ 454005
є@@ 453977
très 453947
owej 453898
cri@@ 453888
ک@@ 453879
rum@@ 453671
ハ@@ 453666
Marso 453660
Gemeinde 453637
kt@@ 453539
آ@@ 453422
ula 453228
areas 453195
consist@@ 453050
bin@@ 452945
CD 452934
3. 452904
её 452796
خ@@ 452729
かっ 452718
q 452642
ation@@ 452584
police 452580
example 452533
forme 452444
regist@@ 452415
lä@@ 452252
sea 452222
1925 452219
面 452090
Au@@ 451880
liber@@ 451728
ru 451701
anc@@ 451611
語 451472
ј@@ 451265
元 450909
hun 450865
1926 450736
rist@@ 450697
ють 450522
人@@ 450517
Ö@@ 450480
成 450477
кра@@ 450307
ила 450152
mem@@ 450036
Sim@@ 449859
ody 449717
average 449623
ping 449480
changed 449430
Bet@@ 449186
ust 449120
し@@ 449053
人口 449024
ية 449013
hen@@ 449006
ною 448989
ining 448917
ста 448907
ef 448848
同@@ 448737
Don@@ 448693
habagatang 448691
ì 448655
owa 448454
jer@@ 448384
kasagaran 448206
tat@@ 447809
기@@ 447648
iro 447340
צ@@ 447337
juga 447070
це@@ 446989
addition 446831
Cette 446805
Institute 446686
result 446651
cop@@ 446634
Septiyembre 446624
flo@@ 446601
het@@ 446497
1912 446480
aki 446425
atic 446408
teams 446261
lá@@ 446146
rather 446049
rad@@ 445957
ブ@@ 445892
bach 445747
Fl@@ 445674
ick@@ 445548
cab@@ 445538
agosto 445360
пол@@ 445080
Kap@@ 444910
mean 444908
tháng 444789
19. 444363
後@@ 444358
gan 444218
skiej 444207
ret 444145
00 444065
18@@ 444033
rem@@ 443995
back@@ 443813
importante 443770
eg 443654
·@@ 443463
iska 443419
1923 443392
rich@@ 443308
ym 443298
NGC 443063
mand@@ 443025
después 443002
project 442949
volta 442909
bungtod 442795
год 442768
Chicago 442729
wat 442641
werk 442588
running 442488
heim 442487
س 442486
anderen 442475
ت 442274
ega 442104
ede 442057
న 441763
його 441611
בי@@ 441565
وي@@ 441319
gé@@ 441318
modern 441297
شد 441181
Ю@@ 441176
habagatan-sidlakang 440948
Ol@@ 440947
型 440861
yst@@ 440842
北@@ 440547
ול@@ 440195
conclu@@ 440181
eria 440133
dann 439966
wide 439951
ന 439867
три@@ 439770
После 439617
Spring 439578
sense 439560
thro@@ 439374
ball 439316
added 439281
лен@@ 439153
obra 439140
nad@@ 439133
haus 439116
our@@ 438988
musical 438973
Januar 438879
tar 438839
questo 438807
remained 438794
nis@@ 438764
Pen@@ 438751
عن 438737
Iran 438635
zer@@ 438622
кар@@ 438551
dall' 438288
Juni 438207
Nobiyembre 438144
ited 438093
vé@@ 438060
Juli 437818
nav@@ 437716
Rock 437621
fund@@ 437462
fois 437434
álbum 437061
Stra@@ 436807
While 436640
mos@@ 436578
הא@@ 436320
St 436294
många 436294
Teil 436214
pos@@ 435908
vuonna 435868
။ 435766
同 435700
ento 435593
eerste 435571
color 435456
ā 435449
série 435389
هو 435383
стра@@ 435326
bak@@ 435309
tent@@ 435165
55 435124
igh@@ 435093
Pa@@ 434860
neg@@ 434823
produ@@ 434689
ә@@ 434608
pic@@ 434479
olan 434331
Mary 434330
Ви@@ 434309
시@@ 434259
Dans 434241
suite 434227
ри 433905
Sub@@ 433889
Os 433854
城 433854
board 433811
ency 433724
Sab@@ 433583
available 433577
kre@@ 433558
yr@@ 433424
Dan@@ 433269
τη 433175
refer@@ 433170
vent@@ 432976
Ар@@ 432955
origin@@ 432898
on-@@ 432667
Dom@@ 432656
öster 432606
nice 432369
場 432298
odi@@ 432283
UK 432205
王 432175
lips 432170
Son 432095
tt@@ 432087
upp@@ 431924
avant 431822
rä@@ 431674
方 431634
mission 431600
wid@@ 431482
heeft 431481
shot 431470
1910 431453
eden 431439
bereits 431417
Bl@@ 431333
形 431317
который 431308
seat 431307
special 431243
No@@ 431208
ア 431098
Sil@@ 431034
ді@@ 431007
lad@@ 430726
ike 430710
式 430637
rom@@ 430610
arse 430607
Od 430585
vật 430480
fro@@ 430381
vot@@ 430357
private 430258
ר 429970
estis 429927
ба 429672
대@@ 429640
First 429571
adores 429510
него 429426
ان@@ 429425
März 429369
sos 429143
los@@ 429062
수@@ 429035
Ti@@ 428836
zar@@ 428789
nim 428751
Ein 428714
fort 428708
島 428651
είναι 428629
Über@@ 428626
poi 428613
Kh@@ 428587
ומ@@ 428568
使 428415
הת@@ 428381
rate 428191
không 428136
gam@@ 428121
essa 428006
imp@@ 427996
Germany 427880
ге 427870
ack 427799
Dor@@ 427762
cual 427730
app@@ 427695
week 427606
tan 427555
mise 427527
isi 427443
жен@@ 427306
route 427283
І@@ 427221
osi 427094
ult 427029
ду 426887
parents 426880
物 426822
ities 426757
material 426755
ovat 426680
میں 426626
Antonio 426585
zug@@ 426575
São 426482
ня@@ 426451
fr@@ 426389
hop@@ 426304
gem@@ 426101
hin@@ 425992
oi 425796
Pin@@ 425793
zeuden 425649
Mayo 425615
té 425597
sei 425583
certain 425484
र 425200
đ@@ 425088
вод@@ 425000
ikke 424854
house@@ 424423
ures 424318
Мар@@ 424314
zá@@ 424294
Ki@@ 424286
licher 424133
andra 423942
cen@@ 423777
ī 423759
space 423579
structure 423505
två 423370
stage 423349
events 423317
фи@@ 423211
model 423205
ками 423030
né@@ 422852
cr@@ 422831
dessen 422762
films 422635
lis 422529
từ 422367
pad@@ 422304
род@@ 422301
Cu@@ 421941
лі 421924
ソ@@ 421830
ד 421788
би 421681
但 421588
Па@@ 421501
stad 421292
нов@@ 421272
habitantes 421243
zw@@ 421143
gue 421024
Bes@@ 420999
herself 420991
quickly 420960
track 420901
מו@@ 420485
メ@@ 420465
Y 420365
дом 420280
större 420254
direc@@ 420211
tun@@ 420211
jen@@ 420200
与 420152
கள 420064
money 420063
sak@@ 420037
elev@@ 420021
wall 419994
sud 419889
8-@@ 419824
Super@@ 419727
tym 419722
città 419668
liter@@ 419588
тра@@ 419586
вого 419583
ás 419486
Brasil 419316
ة 419311
western 419215
tour@@ 419172
得 419170
led@@ 419167
ihrer 419158
Ба@@ 419112
Hy@@ 419108
52 419000
ô@@ 418917
eit 418811
ได้ 418715
forward 418650
Roman 418388
Academy 418367
long@@ 418345
assa 418320
39 418235
français 418110
Са@@ 417993
20. 417844
rated 417813
lang 417753
Ke@@ 417648
thực 417630
가@@ 417592
пра@@ 417562
La@@ 417545
aca 417513
کے 417440
Some 417276
イ 417185
lands 417172
пред@@ 417152
ops 417106
6-@@ 417071
anta 417053
Karl 416893
Roma 416853
plac@@ 416853
asi@@ 416688
dort 416645
Ре@@ 416616
аль@@ 416588
puede 416297
efter 416282
alis@@ 416225
jego 416134
При@@ 416093
Cre@@ 416082
د 416062
allowed 416040
Бо@@ 415904
Ми@@ 415824
การ 415786
Ли@@ 415712
isa 415634
kop@@ 415599
jen 415540
Rom@@ 415431
け 415348
это 415289
gibt 415206
Jo@@ 415122
य 415093
current 415053
etter 414993
polit@@ 414892
Bundes@@ 414807
ско@@ 414783
其 414668
ox@@ 414619
tout 414456
april 414373
getting 414367
dakbayan 414340
investig@@ 414279
ema 414114
ван@@ 414106
Alexander 414086
ihn 414067
sold 413966
J 413811
enten 413784
بر@@ 413779
placed 413696
нием 413597
D. 413571
Rad@@ 413551
対 413510
phone 413241
рен@@ 413234
crit@@ 413206
wouldn 413024
åt 412781
ways 412721
adi 412678
Nach@@ 412674
וב@@ 412492
Sk@@ 412404
ب 412290
kov@@ 411882
parts 411797
ulohang 411734
ries 411633
вания 411521
unt 411490
aan@@ 411408
fur@@ 411380
boy 411328
тер@@ 411224
東@@ 411205
aqu@@ 411200
vie 411127
1000 411046
currently 410836
代 410814
Cur@@ 410764
pom@@ 410666
eventually 410480
bus 410418
4. 410333
ге@@ 410259
nung 410235
ès 410180
ська 410159
anie 410070
ost 409990
1900 409967
kun 409697
key 409499
talk 409412
ø@@ 409292
Universität 409029
tura 408839
scre@@ 408763
deep 408720
Ju@@ 408691
smile 408649
dead 408562
cer 408561
1913 408486
лись 408449
process 408171
Ty@@ 408141
thuộc 408137
Durante 408136
Region 408082
але 408073
document@@ 408004
những 407962
天@@ 407953
todo 407951
сть 407888
yo@@ 407856
aga 407841
Football 407641
alone 407453
nis 407405
43 407289
Hans 407260
myself 407256
Gor@@ 407156
Jan@@ 407134
limit@@ 407114
nag@@ 407079
ಪ 407002
전@@ 406885
bad 406843
два 406825
vá@@ 406821
range 406780
мы 406700
Ak@@ 406579
46 406488
ске 406430
ř@@ 406360
opp@@ 406323
eten 406291
പ 406155
科 406087
час 406029
院 406021
Love 406009
ή 406006
ár@@ 405868
omgivningarna 405805
ował 405801
み 405650
ming 405549
leading 405523
Band 405438
fis@@ 405415
أو 405397
kul@@ 405359
fino 405348
child 405224
apar@@ 405121
bon@@ 405072
gab 405060
fran@@ 404884
unded 404668
리@@ 404661
dad 404598
じ 404577
hadn 404475
features 404431
зу@@ 404383
Dra@@ 404346
является 404346
ły 404082
sans 404052
dhe 404049
uli@@ 403992
idad 403899
zone 403847
ע@@ 403824
ight 403679
ids 403651
mismo 403648
Az@@ 403594
ట 403517
designed 403509
ass 403506
växer 403461
part@@ 403164
fi 403019
Dr. 403005
Do 402979
特@@ 402968
seven 402945
ци 402909
стал 402798
ius 402570
passed 402566
gone 402426
friends 402378
strong 402377
Her 402360
kes@@ 402340
vil@@ 402299
41 402208
() 402144
7-@@ 402132
fon@@ 402100
ś@@ 401963
ウ@@ 401939
hän 401935
ず 401854
sometimes 401797
点 401792
anda 401780
Ce 401755
conver@@ 401696
رو@@ 401558
blo@@ 401524
Big 401479
47 401328
立 401320
Go@@ 400926
grand@@ 400724
Plat@@ 400502
き@@ 400356
hit@@ 400239
1915 400121
try 400117
Radio 399914
стро@@ 399737
oke 399715
sul@@ 399672
Leg@@ 399648
active 399448
todos 399433
expres@@ 399342
К 399295
education 399172
asta 399138
було 399006
meer 398987
ль 398834
Op@@ 398818
ви 398814
モ@@ 398667
小 398425
während 398360
Great 398319
stanovnika 398131
Team 397935
hours 397901
ی@@ 397882
hans 397879
Columbia 397847
Tom@@ 397819
ート 397673
లో 397661
Edward 397602
ом 397597
My@@ 397559
character 397549
sun@@ 397539
avait 397509
лу@@ 397446
performance 397383
एक 397297
ves@@ 397250
Č@@ 397214
Mark 397159
Este 397155
Diese 397119
jaar 397064
кан@@ 396929
kept 396915
Kur@@ 396889
gas 396828
vid@@ 396797
XIX 396744
Best 396636
contribu@@ 396495
ave 396460
Ker@@ 396435
Virginia 396322
isten 396304
Nag@@ 396190
ネ@@ 396151
onder@@ 396082
Friedrich 396048
ガ@@ 395971
局 395808
長@@ 395768
ב 395658
ett@@ 395445
sit 395419
edit@@ 395319
Mah@@ 395122
ilo 395048
ular 395029
invest@@ 394776
official 394772
ша 394764
או@@ 394489
đến 394427
3.@@ 394388
cle 394241
Си@@ 394147
accep@@ 393995
ز 393959
150 393947
training 393906
isch@@ 393896
ną 393784
songs 393780
sione 393760
Sav@@ 393724
myös 393653
involved 393646
Мо@@ 393406
Carlos 393402
dot@@ 393253
conc@@ 393045
Ро@@ 393039
attack 392956
cher@@ 392956
ט 392934
ams 392838
بود 392728
fest@@ 392663
οι 392571
ఉంది 392556
بعد 392536
Nar@@ 392482
personal 392413
beiden 392393
ק 392391
whole 392340
today 392185
وا@@ 392185
را@@ 392056
lik 392030
Haupt@@ 392010
полу@@ 391961
व 391575
largest 391487
ボ@@ 391413
govern@@ 391371
apo@@ 391363
avoir 391199
Por 391120
Dezember 391054
రామం 390951
Carl 390926
k-@@ 390908
الح@@ 390907
ット 390742
compar@@ 390678
లు 390628
ised 390538
ними 390506
ct 390450
tain 390377
ks@@ 390020
более 389911
families 389748
ать 389694
ды@@ 389688
league 389585
caso 389450
南@@ 389348
cut 389292
C' 389282
towards 389256
gg@@ 389186
eing@@ 389156
ческой 389045
pag@@ 389007
क 388980
meg 388942
walked 388775
glesbefolkat 388662
elo 388548
רו@@ 388460
ه 388454
研究 388384
egen 388375
Lee 388332
eto 388322
metal 388226
clear 388112
ych 387927
kö@@ 387916
Court 387807
cing 387787
り@@ 387659
ил 387472
kun@@ 387284
через 387246
throughout 387227
セ@@ 387164
цию 387120
berg@@ 386939
fle@@ 386932
erhielt 386896
Dol@@ 386861
step@@ 386633
человек 386450
deren 386436
study 386323
Kas@@ 386165
Tal@@ 386156
believe 386058
하는 385850
yi 385782
лась 385683
now@@ 385607
Kra@@ 385577
direction 385467
гу 385391
integ@@ 385368
時代 385293
année 385210
ビ@@ 385161
рии 385157
ands 385131
pap@@ 385121
väster 385108
nation@@ 385073
novembre 385017
especially 384890
בשנת 384832
フ@@ 384807
performed 384784
1911 384781
5. 384758
現在 384757
במ@@ 384752
aja 384667
リー 384652
quale 384649
Nov@@ 384646
ников 384597
äh@@ 384512
eight 384456
nika 384415
provincia 384383
pri 384365
können 384341
め 384190
一个 384178
emer@@ 383910
ht 383618
anys 383573
causa 383494
rz@@ 383443
heit 383441
mark 383364
Arts 383351
ný 383173
Kirche 383160
Chinese 382986
khi 382986
ö 382973
Mé@@ 382870
pay@@ 382865
nordväst 382863
till@@ 382683
post 382653
ונ@@ 382615
што 382536
encuentra 382525
née 382524
最 382509
oto 382483
anim@@ 382473
ın 382447
США 382370
tou@@ 382338
ė 382332
Var@@ 382279
centro 382101
מי@@ 382020
Sy@@ 381981
كان 381931
сі@@ 381677
sko 381635
1916 381518
Au 381412
quali@@ 381390
rado 381054
ار@@ 381028
Sig@@ 381027
ads 380990
51 380953
ihr 380796
mid@@ 380720
ческих 380719
放送 380617
ı 380607
ней 380541
49 380506
cir@@ 380484
54 380381
size 380377
ク 380346
Lang@@ 380232
temporada 380182
longer 379986
作品 379871
cast@@ 379736
hear 379730
monde 379672
spor@@ 379583
uri@@ 379449
tel 379443
ше 379440
ih 379219
ess@@ 379037
college 379025
Ле@@ 379006
kra@@ 378949
nt 378874
西 378707
iny 378652
jak 378591
actually 378456
бы@@ 378455
היה 378365
invit@@ 378338
ட 378291
books 378283
ência 378216
Bukid 378057
sue 377996
生@@ 377965
tek@@ 377952
elimin@@ 377933
Pap@@ 377887
dla 377760
view 377754
ו 377653
de-@@ 377539
así 377529
quatre 377484
disp@@ 377379
coach 377375
ws 377283
省 377269
bir@@ 377203
sulla 377189
ック 376992
Deutschland 376931
refer 376929
iva 376893
rod@@ 376851
identi@@ 376830
jan@@ 376814
tại 376756
гор@@ 376753
ות 376524
hö@@ 376491
Con 376402
alb@@ 376359
originally 376345
ites 376297
Sw@@ 376238
owned 376218
России 376180
Sand@@ 376051
Airport 375830
durant 375746
Seit 375733
ل 375706
nih 375673
ball@@ 375624
mindre 375569
alli@@ 375565
moving 375538
ests 375496
ون 375418
ف 375338
ق 375322
有@@ 375217
diesem 375156
ті 375025
iske 375020
Red@@ 374865
路 374828
Lit@@ 374747
distrito 374595
hood 374555
金 374524
ev 374505
Ра@@ 374467
cho@@ 374449
бра@@ 374421
akan 374391
ются 374224
ą@@ 374158
tend@@ 374155
~ 374137
దూరంలో 374051
swe@@ 374015
famille 373987
ван 373880
kuperad 373715
ông 373662
episode 373497
publi@@ 373467
haar 373443
XX 373406
ises 373280
ят 373269
culture 373203
tos 373195
lou@@ 373171
samhälle 373137
gek@@ 372995
ジ@@ 372929
morning 372922
גם 372755
professor 372730
క 372661
인 372598
тре@@ 372518
stata 372503
enz@@ 372497
Department 372446
fou 372435
wil@@ 372371
ן 372220
cks 372072
stan@@ 371916
שי@@ 371906
lived 371870
Pu@@ 371769
successful 371728
1908 371643
ян@@ 371446
ét@@ 371439
tic 371438
ит@@ 371358
spent 371351
completed 371246
expla@@ 371175
öl@@ 371118
ники 371078
ча 371067
eig@@ 371053
Ж@@ 370922
ei@@ 370891
river 370861
பட 370739
erne 370721
ş@@ 370694
Although 370674
Tak@@ 370666
sim@@ 370616
هم 370588
lines 370582
norr 370549
Ara@@ 370534
reported 370420
kontinente 370406
pen 370260
food 370169
多@@ 370101
25@@ 370006
ero@@ 369930
notamment 369924
aff@@ 369865
marzo 369796
Africa 369753
glan@@ 369528
אי@@ 369455
ків 369417
zioni 369396
ش 369323
ura@@ 369147
ces@@ 369146
정@@ 369095
So 368946
olarak 368854
gol@@ 368849
ях 368821
ond 368806
san 368795
leurs 368666
Abril 368618
aking 368597
kr@@ 368512
Mis@@ 368432
Don 368418
sac@@ 368177
ßen 368114
6. 368093
skin 368086
cause 367912
над 367666
Ly@@ 367395
includes 367372
cidade 367243
presidente 367184
Närmaste 367127
Ц@@ 367072
onto 367030
shows 367023
ダ@@ 366795
チ@@ 366723
ün@@ 366713
eti 366712
إ@@ 366671
ска@@ 366543
三@@ 366537
habitants 366496
muy 366490
nh@@ 366400
directed 366267
Mes@@ 366244
grandes 366044
fir@@ 366031
Ren@@ 365630
leaving 365611
安@@ 365559
Ci@@ 365525
テ@@ 365511
eron 365509
mig@@ 365430
1905 365388
spar@@ 365357
lap@@ 365310
gor@@ 365290
groups 365243
Saison 365219
து 365212
600 365080
Act 364967
enie 364953
eld 364908
했다 364847
国@@ 364670
Де@@ 364666
hang@@ 364633
tle 364550
nära 364546
sister 364476
kaumahan 364414
means 364403
cours 364330
тор@@ 364186
Arch@@ 364165
mental 364144
هي 363657
вать 363624
ших 363562
run@@ 363513
ву 363503
Not@@ 363447
esch@@ 363339
inn 363300
saison 363298
ön@@ 363088
entire 363001
arg@@ 362988
ax@@ 362936
ral@@ 362885
tap@@ 362848
iten 362808
família 362793
segundo 362771
tek 362621
formation 362615
cant@@ 362598
fel 362408
got@@ 362359
Daniel 362322
voor@@ 362305
cover 362213
ys@@ 362170
fight 362123
god 362074
期 362010
tered 361998
Saint 361975
tipo 361877
56 361858
налази 361793
vu 361688
持 361641
ande 361533
junto 361521
players 361481
fort@@ 361466
sons 361459
800 361331
uti 361311
doesn 361270
Canadian 361248
ر 361161
ات 361074
know@@ 361024
хи@@ 361007
lem@@ 360919
نا@@ 360806
ß@@ 360789
ved@@ 360708
برای 360705
bank 360662
ples 360540
sion@@ 360536
aro 360498
province 360491
ال@@ 360467
store 360461
Florida 360211
Се@@ 360175
им 360164
atu 360121
だっ 360118
geh@@ 360117
lay@@ 360019
c' 359991
kasadpang 359938
chten 359862
ಸ 359686
それ 359554
ended 359541
idi@@ 359540
Mak@@ 359511
став@@ 359489
мат@@ 359399
Johann 359355
abril 359292
winning 359288
Grande 359261
למ@@ 359032
ners 358990
ון 358610
eda 358609
oko 358509
aya 358474
Eng@@ 358469
erung 358449
לא 358397
ues 358290
Lam@@ 358251
last@@ 358220
ще 358214
opera 358205
ganska 358202
ür@@ 358188
arios 358172
Nord 358118
okay 357929
گ@@ 357919
består 357915
자@@ 357840
forms 357798
ná 357682
pes@@ 357637
ovanligt 357461
atu@@ 357436
happened 357434
kil@@ 357359
gradu@@ 357298
laug@@ 357289
stopped 357245
le-@@ 357098
eus 357013
inga 356952
τους 356947
acht 356915
Since 356755
fell 356712
whis@@ 356682
schools 356636
iy@@ 356555
erw@@ 356521
アメリカ 356511
jon@@ 356475
ベ@@ 356472
ム 356438
aries 356350
leader 356341
amb@@ 356249
Fil@@ 356230
featured 356166
aver@@ 356153
ric 356004
гі@@ 356002
9-@@ 355937
dur@@ 355869
arly 355802
Force 355779
god@@ 355767
nodded 355743
zer 355621
stay 355617
ações 355503
Eine 355482
hier 355426
ening 355419
raised 355419
În 355265
attention 355156
Little 355067
col 354909
три 354885
Frank 354836
書 354706
Open 354700
グ@@ 354489
itself 354394
etti 354183
Guerra 354089
ря@@ 354088
question 354044
så 354039
deel 354011
pays 353986
iko 353970
ля 353947
見 353926
C-@@ 353802
hemiboreal 353785
З 353733
Lim@@ 353605
holds 353589
7. 353545
ا 353502
namngivna 353499
2010. 353489
source 353436
stated 353247
decor@@ 353211
ological 353132
thus 353065
18. 353044
Aut@@ 352986
rop@@ 352964
ек@@ 352951
ком@@ 352947
lau@@ 352929
Minister 352920
سي@@ 352801
Land 352765
Jack 352688
الع@@ 352625
ке@@ 352511
53 352473
rada 352254
Jahrhundert 352249
系 352230
Mun@@ 352227
бер@@ 352165
ити 352053
lagen 351959
ക 351942
ха 351840
jud@@ 351835
лет@@ 351782
واقع 351687
molupyo 351571
lu 351558
idos 351498
သည 351468
bru@@ 351466
yo 351214
future 351161
figure 351059
Der@@ 351056
stru@@ 350970
cos@@ 350956
Op 350884
deal 350806
lio 350746
8. 350732
約 350720
東京 350612
tia 350569
particular 350537
Пер@@ 350529
iet@@ 350487
alo 350480
сло@@ 350470
ngày 350417
pot 350414
ells 350309
1907 350213
**@@ 350209
eder 350098
全@@ 350051
Ha@@ 350032
ort@@ 350004
제@@ 349930
orient@@ 349916
او 349856
pentru 349724
contro 349723
Jan 349675
nom@@ 349672
es-@@ 349664
replaced 349638
seg 349590
9. 349480
uv@@ 349457
atau 349435
até 349432
listed 349416
dai 349333
pé@@ 349319
below 349287
自@@ 349248
rar 349207
équipe 349111
24@@ 348968
か@@ 348964
natur@@ 348954
US@@ 348949
sor 348800
older 348718
Platz 348698
habagatan-kasadpang 348529
Dam@@ 348457
centrala 348375
Liga 348311
י 348308
ז@@ 348279
Су@@ 348270
הש@@ 348257
spec@@ 348175
España 348095
水 348064
ő@@ 347878
pris@@ 347803
nou 347783
ction 347721
schaften 347716
Sir 347577
saying 347557
aged 347503
non@@ 347406
金@@ 347353
Plan@@ 347349
Carolina 347242
sign@@ 347173
mant@@ 347129
ume 346998
status 346977
provided 346963
Rec@@ 346877
Према 346858
фі@@ 346817
ву@@ 346797
deutschen 346777
ев 346732
Argentina 346664
spe@@ 346621
gang 346588
tico 346577
gent@@ 346535
הי@@ 346480
lanaw 346410
mundo 346345
海@@ 346343
بر 346336
cour@@ 346333
Après 346281
ñ@@ 346256
ordin@@ 346197
erano 346189
6.@@ 346085
esto 346050
número 346013
nam 345976
nordost 345948
Hen@@ 345902
ott@@ 345898
可能 345772
incre@@ 345749
Under 345721
Dun@@ 345537
היא 345461
ای 345458
58 345455
cultural 345408
α 345217
female 345211
Mitglied 345172
Its 345156
дер@@ 345093
ieren 344975
tol@@ 344939
rus@@ 344911
beginning 344902
nomin@@ 344835
stadt 344816
syn@@ 344712
bis@@ 344664
aban 344574
ros@@ 344548
ods 344516
와 344493
qual 344417
ट 344372
denen 344264
dies 344191
ires 344155
ських 344155
bli@@ 344147
vu@@ 344095
Tan@@ 344072
cal 343834
tigen 343770
они 343746
Jones 343715
civil 343702
nowiki 343701
straße 343628
fins 343588
با@@ 343566
ket@@ 343481
eli@@ 343388
Brown 343387
پ@@ 343314
11@@ 343254
Tom 343222
whose 343194
rick 343102
ningen 343072
ع 343046
Fri@@ 343042
lav@@ 343015
meng@@ 343013
defen@@ 343000
ポ@@ 342928
Os@@ 342892
faire 342616
anza 342593
ias 342528
rage 342415
fig@@ 342340
부@@ 342254
suoi 342068
B-@@ 341996
vun 341993
ander 341952
iden 341937
万 341904
breath 341819
定 341782
також 341645
ями 341625
יי@@ 341573
נו@@ 341551
デ@@ 341542
previous 341504
má@@ 341433
bridge 341404
文@@ 341379
Pierre 341366
actor 341257
popul@@ 341248
ور@@ 341122
alist 340944
கு 340868
associ@@ 340859
jeho 340853
Η 340794
הו@@ 340763
respon@@ 340686
także 340534
illo 340443
Wilhelm 340442
זה 340438
ا@@ 340372
1906 340342
inform@@ 340120
بين 340052
Februar 340038
Wer@@ 340038
Barcelona 339991
Ba@@ 339981
byla 339886
Fylke 339847
grand 339697
он@@ 339685
thir@@ 339591
sam 339529
regular 339499
states 339459
57 339430
인@@ 339303
郡 339273
đó 339241
-se 339180
quan 339161
Cy@@ 339146
owego 339139
tiva 339059
סי@@ 339014
Auch 338984
sch 338966
tet@@ 338887
بن 338878
政府 338865
eder@@ 338863
summer 338847
南 338806
Awards 338782
kg 338774
resp@@ 338742
inner 338734
لا@@ 338710
gemeente 338555
kte 338541
30@@ 338534
ote 338301
Lan@@ 338298
countries 338274
plant@@ 338206
autre 338109
kill 338108
း@@ 337972
ends 337800
iche 337776
fully 337719
ean 337585
米 337530
idade 337337
ała 337294
Zealand 337234
Two 337215
Russian 337192
equipo 337164
Wor@@ 337069
ках 336993
Albert 336862
Ан@@ 336856
hid@@ 336833
altri 336789
Ta@@ 336788
ві 336757
alta 336720
cont@@ 336720
До@@ 336618
А 336562
cast 336559
ond@@ 336517
kar 336436
க 336400
È 336386
Portugal 336349
95 336239
kw@@ 336233
ishing 336230
Japanese 336149
하였다 336077
Pel@@ 336075
ما@@ 336023
ough 335977
stesso 335956
مت@@ 335882
85 335817
Dal@@ 335801
influ@@ 335741
alit@@ 335720
Valley 335712
только 335681
Day 335664
Ir@@ 335636
Mont@@ 335568
couple 335547
related 335500
ared 335476
Vis@@ 335422
后 335411
ahan 335382
andre 335351
star 335300
separ@@ 335248
ian@@ 335125
тро@@ 335049
eds 334945
U-@@ 334864
E. 334788
ב-@@ 334752
uten 334749
Mos@@ 334709
世 334681
hem 334538
desig@@ 334437
th-@@ 334430
Wales 334409
công 334257
7.@@ 334165
forced 334078
נה 333995
Star@@ 333987
士 333956
reti@@ 333914
ately 333911
opening 333890
į 333819
jam@@ 333817
matter 333774
pes 333709
enter@@ 333702
Me 333693
island 333574
My 333397
writing 333366
iga 333324
ingly 333229
מה 333206
между 333191
earlier 333158
twee 333134
inten@@ 332937
ables 332919
என 332884
avi@@ 332881
ров@@ 332764
які 332727
59 332710
Is@@ 332702
modo 332541
bert 332506
joka 332437
música 332379
fit@@ 332346
社 332324
чу@@ 332309
дан@@ 332244
Ру@@ 332200
ect@@ 332136
degree 332132
Av@@ 332091
thể 332085
скую 332026
ур@@ 332000
知 331982
Israel 331871
nearly 331731
아@@ 331729
awarded 331663
aal 331652
hr@@ 331560
Bank 331554
ن 331496
hav@@ 331495
market 331463
сы@@ 331430
Green 331363
magazine 331363
ann 331312
ді 331283
inwoners 331186
worth 331144
eer@@ 331110
posto 331097
ос@@ 331067
4,@@ 331046
sempre 330999
requ@@ 330897
fingers 330887
ows 330876
官 330782
ie@@ 330661
nach@@ 330630
Kategoriya 330555
surface 330545
dig 330537
1909 330512
hy 330427
15. 330376
nahm 330341
tidak 330292
Но@@ 330281
بي@@ 330262
ský 330154
hé@@ 330131
동@@ 330121
與@@ 330101
yd@@ 330034
Fue 329866
teil 329788
ан 329703
sort 329661
лся 329592
progres@@ 329587
pendant 329517
aks 329449
oti@@ 329410
comune 329362
pted 329352
23@@ 329330
ческого 329317
lak@@ 329299
주@@ 329294
東 329247
origine 329126
allow 329099
ram 329073
تا 328981
eks 328923
menjadi 328922
standard 328861
visit@@ 328831
sehr 328706
án@@ 328691
först 328683
H. 328616
明 328593
damit 328577
Chile 328472
Tab@@ 328451
contract 328431
tim@@ 328361
ад@@ 328327
heavy 328307
Gol@@ 328268
ల 328243
gar 328233
novel 328185
rum 328159
Do@@ 328144
ur. 328144
minister 328129
ノ@@ 328112
sop@@ 328061
oy 328016
Cel@@ 327978
oli@@ 327792
66 327782
hell 327774
makes 327610
Pennsylvania 327563
Cab@@ 327539
بو@@ 327477
向 327448
zam@@ 327310
Ven@@ 327286
nev@@ 327261
72 327188
punto 327129
true 327123
СССР 327086
walog 327033
région 327022
feld 326989
isi@@ 326935
zurück 326902
poder 326896
itz@@ 326814
fall@@ 326806
kel 326785
Та@@ 326736
Tam@@ 326708
covered 326694
ён 326645
正@@ 326565
Lat@@ 326556
amo 326546
science 326535
eth@@ 326478
לאחר 326450
west@@ 326401
состав 326398
mate 326327
ў@@ 326327
کا 326287
呼 326235
interest 326221
кла@@ 326206
ος 326190
города 326085
dz@@ 326024
về 325833
tai 325764
ling@@ 325681
ration 325667
Hom@@ 325629
Real 325599
ix@@ 325571
aircraft 325506
ത 325482
break 325355
loss 325347
ním 325342
anyone 325284
Hand@@ 325252
про 325238
dân 325203
blue 325048
everyone 324930
мор@@ 324869
고@@ 324818
chest 324792
hanno 324775
вых 324768
conten@@ 324761
mä@@ 324733
entered 324723
siglo 324708
斯 324594
win@@ 324495
introduced 324466
atives 324453
되었다 324419
bud@@ 324385
לה 324354
complete 324294
分@@ 324257
5.@@ 324240
ery 324149
代表 324143
söder 324089
tow@@ 324044
مو@@ 324026
Dec@@ 323975
durch@@ 323928
하고 323891
曲 323848
合 323770
stro@@ 323765
momento 323752
Anna 323727
AS@@ 323711
ligt 323612
clas@@ 323552
bloc@@ 323539
jun@@ 323520
padre 323506
представ@@ 323502
Groß@@ 323496
Williams 323441
دارد 323374
Auf 323253
actual 323225
vas@@ 323208
gio 323205
ental 323198
ators 323185
یا 322915
î@@ 322898
vel 322874
中心 322752
bes 322691
ディ@@ 322623
aned 322540
compet@@ 322512
versch@@ 322468
ления 322438
tras 322424
smiled 322416
R. 322390
量 322390
job 322384
Lord 322322
Serie 322221
success 322205
phot@@ 322117
bran@@ 322106
ті@@ 321960
foram 321919
די 321882
để 321873
zie 321840
ру 321811
titre 321368
cked 321331
provide 321270
場合 321211
lig 321199
arte 321190
Navy 321067
স 321000
ју 320993
movement 320984
lower 320954
성@@ 320929
May@@ 320836
sag@@ 320694
Ontario 320658
statt 320532
Italian 320517
iger 320414
huvudsakligen 320391
Star 320310
fte 320173
Mur@@ 320154
secondo 320152
bekannt 320145
ät@@ 320127
maj 320109
inos 320082
ege 320069
nau@@ 320050
capit@@ 319929
ça 319917
Ме@@ 319912
encore 319889
스@@ 319848
против 319840
ок@@ 319822
Empire 319771
feeling 319755
giving 319709
S-@@ 319687
Gran@@ 319622
會@@ 319587
rei 319550
ril@@ 319516
насеље 319491
اور 319326
受け 319325
în@@ 319299
Bir@@ 319196
collection 319136
competition 319072
bad@@ 319020
時@@ 318868
hai 318674
Marie 318574
1904 318567
circa 318552
外@@ 318444
וי@@ 318415
Ireland 318355
miles 318339
ax 318328
strat@@ 318276
色 318270
Northern 318265
áu 318252
行@@ 318216
lac@@ 318139
oria 318136
high@@ 318051
Cast@@ 318015
dag 317998
він 317937
ble@@ 317888
wegen 317735
斯@@ 317704
ask 317628
수 317560
которые 317549
buildings 317493
боль@@ 317481
ث@@ 317438
min 317410
cerca 317368
17. 317362
rio 317353
Nova 317292
tz@@ 317255
ی 317231
То@@ 317223
Stadt@@ 317195
compl@@ 317132
telah 317107
hadde 317067
bev@@ 317054
Río 317030
quân 316975
lieu 316929
utiliz@@ 316911
고 316890
seguito 316860
Ost@@ 316846
irs 316783
спо@@ 316768
ї@@ 316760
Fo@@ 316614
aver 316601
4.@@ 316489
teur 316478
lock 316477
gas@@ 316382
kas 316356
male 316309
zunächst 316262
sey 316228
regionen 316130
уч@@ 316037
problem 316029
dis 315906
台 315900
fourth 315898
mir@@ 315838
bị 315764
voc@@ 315742
weg 315728
są 315725
rights 315632
Für 315592
meet 315588
初 315506
Το 315478
16. 315459
Toppen 315447
samt 315438
weeks 315415
ō 315363
62 315351
Nam 315351
rer 315340
acy 315312
Chi@@ 315272
Deb@@ 315190
Pedro 315081
conven@@ 315080
地@@ 315059
elen 315052
stagione 315021
invol@@ 315008
unha 314994
все 314986
лось 314953
uj@@ 314905
Oktubre 314863
P. 314857
сь 314812
보@@ 314755
мет@@ 314682
ail@@ 314551
Ran@@ 314483
原 314478
área 314366
ové 314343
hoa 314337
holding 314313
să 314281
ira@@ 314225
Fol@@ 314167
сте@@ 314157
gun 314150
sj@@ 314148
zusammen 314027
simple 314017
Bu 313975
ían 313969
hem@@ 313925
бор@@ 313864
ці@@ 313829
tav@@ 313750
dello 313645
IS@@ 313578
ington 313499
120 313426
لا 313420
Bri@@ 313382
gold 313179
reli@@ 313179
reason 313172
شود 313155
él 313093
dir@@ 312938
jet@@ 312928
ione 312906
Mine 312856
Sin@@ 312829
yan@@ 312803
無@@ 312756
ality 312747
sport 312696
живело 312680
就 312621
pass 312609
aveva 312558
kes 312557
usi 312503
signific@@ 312376
しかし 312373
steht 312293
följande 312253
zes 312251
Sur@@ 312245
重@@ 312241
guerre 312227
exclu@@ 312223
cs 312173
như 312146
存在 312107
systems 312101
distance 312011
手@@ 311912
keine 311862
Bungtod 311828
deci@@ 311827
edition 311778
takes 311752
主@@ 311731
Lar@@ 311712
rol 311665
Med@@ 311664
63 311637
hil@@ 311613
devient 311588
250 311486
野 311459
test 311451
Times 311449
jej 311364
zeit 311264
Gesch@@ 311141
隊 311051
sty@@ 310988
Other 310946
сен@@ 310842
като 310755
前@@ 310711
外 310692
sci@@ 310687
VI 310671
maj@@ 310602
cap 310599
مي@@ 310572
jak@@ 310538
або 310517
mechan@@ 310480
street 310465
oval 310439
hur@@ 310435
בין 310430
Tel@@ 310390
army 310364
ihren 310336
名@@ 310322
issue 310202
vac@@ 310198
вен@@ 310184
най@@ 310083
nya 310031
ك 309972
poco 309898
№ 309895
الج@@ 309890
abandon@@ 309876
aste 309698
法@@ 309669
因 309665
lit 309641
Бу@@ 309568
Str@@ 309541
ర 309433
dere 309414
segu@@ 309406
eil@@ 309403
או 309341
fas@@ 309264
اس@@ 309164
shook 309122
Station 309021
vers@@ 309013
meeting 309003
iri@@ 308983
allo 308800
ged@@ 308727
Johnson 308648
Une 308621
Den@@ 308593
anger 308511
ре 308392
pare 308367
67 308295
98 308152
mers 308099
serve 308025
الن@@ 308014
sitt 308003
ium 307998
peu 307770
Republic 307674
קו@@ 307642
bare 307557
海 307536
кі@@ 307502
husband 307419
дав@@ 307363
length 307361
befindet 307353
поло@@ 307351
allem 307349
Centre 307338
bt 307184
Namen 307177
73 307168
Most 307153
место 307114
questa 307088
ovi 307072
ías 307067
Fal@@ 307056
• 306983
mô 306968
morte 306909
AR@@ 306788
stand@@ 306753
DVD 306611
Vil@@ 306538
municipio 306530
On@@ 306430
leg 306400
Entre 306379
жения 306362
lot@@ 306267
ナ 306249
ני@@ 306224
tum@@ 306198
nin 306181
campo 306144
Asia 306140
ossa 306135
comes 306119
lay 306090
lik@@ 305977
Ort 305967
bun@@ 305952
ump@@ 305910
ings@@ 305903
Mod@@ 305739
low@@ 305728
Scott 305707
walk 305664
Spanish 305617
esp@@ 305575
신@@ 305462
ien@@ 305415
vag@@ 305372
ф 305343
bos@@ 305120
rot@@ 305112
sugg@@ 305067
ск 305067
ロ 305027
ген@@ 305008
tous 304942
runs 304936
кі 304884
flu@@ 304843
sku 304812
館 304786
eleg@@ 304771
festival 304711
сов 304689
Dem@@ 304660
Pod@@ 304607
imi 304483
ine@@ 304438
ül@@ 304419
tard 304389
tex@@ 304299
один 304270
census 304244
yk@@ 304220
cli@@ 304090
ине 304007
공@@ 303965
wn 303955
fted 303895
кри@@ 303887
Victoria 303850
Kingdom 303810
adop@@ 303694
ského 303646
micro@@ 303582
Lib@@ 303580
motor@@ 303296
рия 303266
jsou 303264
plant 303233
uts 303233
Kre@@ 303227
aine 303219
під@@ 303205
quien 303153
通 303030
פי@@ 303016
favor@@ 302938
oon 302906
tiempo 302865
hade 302837
ты@@ 302835
רי@@ 302808
през 302739
oden 302708
Beg@@ 302660
장@@ 302624
入@@ 302598
ß 302570
sự 302567
സ 302514
61 302462
Super 302411
ತು 302403
Ä@@ 302228
bet 302189
nut@@ 302106
nalazi 302090
actions 302079
чно 302056
jes@@ 302021
bau 301966
ło 301849
uti@@ 301839
ht@@ 301833
situation 301813
lö@@ 301696
eme 301671
goal 301622
Во 301565
inas 301558
ью 301550
бел@@ 301536
meant 301528
стан@@ 301500
rar@@ 301427
weitere 301422
Ο 301408
ater 301371
ready 301354
enge 301328
a. 301278
dw@@ 301261
scored 301097
L. 301091
Hon@@ 301062
Grund@@ 301019
Service 301009
lev@@ 300998
unit 300874
første 300864
allen 300863
ено 300833
oy@@ 300699
Kir@@ 300655
Committee 300640
kaayo 300627
유@@ 300618
ê 300613
마@@ 300538
green 300498
cles 300417
вана 300402
ých 300363
ера 300295
attended 300262
言 300230
הנ@@ 300226
atore 300195
Francia 300162
पर 300134
ником 300130
ض@@ 300085
висини 299989
vision 299954
бро@@ 299933
דה 299910
trên 299898
Кар@@ 299768
Vel@@ 299767
오@@ 299765
насељу 299747
Indi@@ 299668
ied 299632
historia 299577
wir@@ 299527
W. 299484
battle 299458
quite 299364
piano 299346
без 299330
ngadto 299315
די@@ 299286
ден 299233
begann 299174
бы 299122
× 299066
ual 299037
nature 299015
whom 298974
ains 298957
sted 298926
Els 298921
選手 298909
x-@@ 298894
神@@ 298845
hot 298796
нами 298752
elling 298723
ouse 298584
Rome 298558
African 298534
doc@@ 298532
اس 298516
ח 298425
加@@ 298425
esi@@ 298398
войны 298250
immer 298236
與 298215
gez@@ 298142
roman@@ 298109
Bay@@ 298104
paper 298059
dern 297965
gru@@ 297920
individual 297903
disput@@ 297896
或 297878
ró@@ 297855
ography 297794
nich 297780
gli@@ 297777
äng@@ 297770
collec@@ 297691
надморској 297690
jar@@ 297641
کرد 297624
defeated 297607
odes 297537
població 297533
The@@ 297526
81 297502
Para 297498
1903 297463
ably 297415
owany 297405
master 297391
1901 297384
5,@@ 297370
Jackson 297335
autor@@ 297270
continue 297108
68 297068
sede 297057
pop 297042
ky@@ 297008
Luis 296982
этого 296917
sydväst 296912
並@@ 296882
ま@@ 296851
оп@@ 296811
Seine 296741
А. 296716
lei 296711
pping 296622
हैं 296605
Professor 296600
党 296545
стве 296496
embargo 296460
Esp@@ 296375
cos 296347
themselves 296264
minist@@ 296219
вание 296217
mare 296215
الق@@ 296208
obser@@ 296182
য 296170
派 296168
concern@@ 296156
mens 296132
molto 296020
Pil@@ 296008
eye 295950
Ohio 295916
၊ 295900
cus 295844
ationen 295811
הע@@ 295694
한다 295689
нь 295669
Kin@@ 295668
hin 295596
ία 295558
Queen 295557
accu@@ 295540
ור@@ 295522
što 295460
box 295416
norte 295331
caught 295300
recog@@ 295293
chte 295280
Québec 295166
وی 295155
dav@@ 295142
omet@@ 295129
approximately 295127
hay 295065
Hän 295057
cav@@ 294975
Bill 294931
campaign 294920
iš@@ 294801
德@@ 294787
Young 294777
général 294744
units 294582
anti-@@ 294557
プ@@ 294543
Games 294472
14. 294456
nouveau 294431
soit 294428
74 294392
vig@@ 294361
وأ@@ 294331
ení 294307
вра@@ 294296
sport@@ 294266
Sohn 294251
verw@@ 294250
short@@ 294107
inclu@@ 294021
Wol@@ 293868
1902 293858
periodo 293847
кре@@ 293834
ché 293751
chính 293579
spr@@ 293543
ף 293502
Fort 293491
Лу@@ 293399
реки 293295
教@@ 293232
属 293224
ları 293223
át@@ 293209
pain 293198
bajo 293143
trac@@ 293135
чен@@ 293131
Pl@@ 293087
siendo 293011
Nam@@ 292973
news 292973
під 292918
Boston 292905
Punta 292781
tin 292634
nä@@ 292624
county 292571
న@@ 292561
cases 292524
Pada 292488
asa 292485
trat 292452
Geb@@ 292362
zo@@ 292240
도@@ 292212
Esta 292192
א 292160
exhib@@ 292147
戦@@ 292124
zn@@ 292042
We 291960
pers 291949
Jakarta 291892
principale 291886
итель@@ 291880
bag@@ 291835
aur@@ 291832
även 291819
estim@@ 291674
read 291642
nos@@ 291622
этом 291621
Bru@@ 291578
antly 291506
energy 291489
hä@@ 291465
നു 291408
тів 291363
sob@@ 291283
camp 291274
في@@ 291231
員 291226
New@@ 291144
AT@@ 291137
nak@@ 291090
לו@@ 291055
има 291028
multi@@ 291024
cis@@ 291022
studied 291001
Album 290944
ș@@ 290943
plays 290938
jum@@ 290935
geg@@ 290876
ем@@ 290868
syfta 290840
13. 290806
clos@@ 290720
ने 290689
8.@@ 290680
sydost 290673
alter@@ 290663
Walter 290633
trä@@ 290567
ned@@ 290551
eding 290301
tige 290266
studi@@ 290234
inv@@ 290230
sist@@ 290228
erna 290211
以下 290204
Nieder@@ 290182
Bul@@ 290028
도 289933
ft@@ 289840
ener 289778
bb@@ 289726
ピ@@ 289668
consum@@ 289648
Oper@@ 289593
tus 289587
normal 289555
T-@@ 289524
84 289509
slowly 289429
anus 289409
gin@@ 289405
sud@@ 289392
jed@@ 289390
Blue 289386
milit@@ 289352
helped 289252
Santiago 289194
María 289168
two-@@ 289163
eles 289153
BBC 289146
克@@ 289141
tarde 289075
হয 289072
bzw. 289069
gh@@ 289058
lich@@ 289002
tes@@ 288999
rea 288940
Old 288878
residen@@ 288855
acti@@ 288791
hen 288787
ole@@ 288781
managed 288770
вати 288732
hospital 288715
nosti 288707
活動 288670
Bil@@ 288665
lain 288659
places 288580
offered 288552
esen 288532
із 288494
shoulder 288444
вання 288436
ester 288414
لي@@ 288398
past@@ 288382
thinking 288347
尔@@ 288312
pau@@ 288270
率 288205
北 288183
aram 288074
platt 288031
около 288010
ome 287987
appearance 287963
nationale 287921
Bot@@ 287916
ān 287911
occup@@ 287886
dil@@ 287876
93 287853
スト@@ 287827
museum 287755
yeah 287734
ил@@ 287731
significant 287717
southern 287715
itu@@ 287692
氏 287681
student 287649
ize 287592
Sor@@ 287560
دي@@ 287541
制 287515
wonder@@ 287469
iling 287426
middle 287358
Vill@@ 287356
transl@@ 287313
northern 287271
Ing@@ 287256
Uni@@ 287244
ays 287164
tut@@ 286939
train 286863
రామంలో 286851
syahan 286810
nah@@ 286779
ידי 286688
after@@ 286655
мі 286573
ший 286539
Let@@ 286316
Heinrich 286261
sjö 286194
cket 286191
Top 286148
homes 286135
koja 286090
تو@@ 286045
complet@@ 285970
ních 285951
sí@@ 285929
neck 285911
mostly 285893
فر@@ 285893
kri@@ 285855
який 285812
writer 285751
Lor@@ 285736
immediately 285734
92 285722
pt 285691
була 285657
independent 285650
pair 285641
Sem@@ 285633
ის 285594
kten 285536
能 285431
szer@@ 285398
99 285382
Arthur 285371
Som@@ 285154
article 285130
urg@@ 285129
무@@ 285126
uro@@ 285116
Familie 285069
AC@@ 285067
зі 285039
lub 285014
itel@@ 284990
Mus@@ 284988
フィ@@ 284968
Ки@@ 284922
Sti@@ 284903
ě@@ 284874
minute 284831
Prix 284825
mondiale 284778
лен 284732
文 284715
staff 284704
sid@@ 284687
Il@@ 284607
ис@@ 284584
lok@@ 284570
clo@@ 284537
organization 284504
Pon@@ 284496
Ul@@ 284307
kab@@ 284270
Hil@@ 284259
eit@@ 284250
manufac@@ 284248
If 284238
дов@@ 284210
Mul@@ 284123
ois 284097
Berg@@ 284042
Long 284011
lista 283988
ebenfalls 283913
previously 283831
thy 283829
彼 283814
Provincia 283810
pow@@ 283795
rav@@ 283794
поч@@ 283779
12. 283777
ون@@ 283687
rose 283652
ление 283617
furono 283580
området 283524
мер@@ 283519
mic@@ 283514
famous 283504
း 283491
día 283438
row@@ 283397
segunda 283385
Billboard 283377
changes 283275
waar 283227
ゴ@@ 283092
83 283084
profession@@ 283079
96 283067
비@@ 283048
score 282886
purch@@ 282852
сі 282847
Ash@@ 282843
Ла@@ 282801
tien 282797
poste 282792
ческий 282785
française 282641
шим 282635
sé 282623
moins 282602
eh 282573
higher 282554
69 282546
Copa 282538
ель 282502
sex 282414
来 282388
manager 282351
ць 282297
年@@ 282264
ison 282249
гла@@ 282093
All@@ 282090
об 282061
required 282057
미@@ 282038
charge 282027
Gam@@ 282019
بة 281965
també 281945
stud@@ 281919
ры 281906
дел@@ 281856
Fra@@ 281814
ca@@ 281812
aer@@ 281780
소@@ 281734
pan 281733
دی 281728
reach 281515
త 281507
ning@@ 281455
istas 281396
tial 281379
ких 281356
anderem 281304
88 281286
。 281281
off@@ 281259
skie 281220
つ@@ 281204
91 281174
premi@@ 281134
telt 281111
vis 281096
illes 281079
likely 281073
aris 281041
tussen 281036
ków 281029
self-@@ 281025
ков@@ 280974
ading 280964
明@@ 280912
Го@@ 280906
ió 280877
Dre@@ 280866
در@@ 280837
manera 280814
época 280767
osi@@ 280758
ья 280697
Gel@@ 280670
σ@@ 280659
Ha 280584
protest@@ 280558
który 280540
عدد 280538
sorry 280481
IC 280449
進 280435
لو@@ 280428
стар@@ 280427
artist 280410
Rob@@ 280401
suit 280393
בו@@ 280323
skog 280293
7,@@ 280227
chin@@ 280188
noted 280175
kn@@ 280147
tier 280142
completely 280131
ush@@ 280127
Des 280121
ని 280118
wards 280093
aller 280038
ש 280008
تر@@ 280008
eben 280006
కేంద 279984
ден@@ 279934
hall 279888
relationship 279885
expected 279818
educ@@ 279765
ций 279740
plans 279611
چ@@ 279514
ата 279503
generally 279462
ട 279452
Gri@@ 279396
権 279304
Illinois 279294
Women 279269
hos 279224
celeb@@ 279180
Science 279176
nation 279154
רה 279153
ativa 279114
ライ@@ 279104
בר@@ 279097
understand 279017
阿@@ 278962
вая 278897
awa 278876
bring 278872
בא@@ 278831
début 278812
ње 278737
according 278730
health 278655
située 278597
Syn@@ 278596
Pot@@ 278591
num@@ 278562
caused 278546
Mittel@@ 278537
1898 278517
ories 278468
ré 278456
Joe 278422
colle@@ 278352
angan 278295
ften 278265
الس@@ 278194
zeit@@ 278191
ち@@ 278061
month 278019
až 277923
V. 277903
шей 277861
Fel@@ 277808
ム@@ 277734
ké@@ 277717
yc@@ 277683
сом 277664
Catholic 277663
stam@@ 277663
tures 277661
chair 277611
chance 277561
wrong 277539
dropped 277474
6,@@ 277470
donc 277468
nal@@ 277411
ನ 277342
repli@@ 277335
ecting 277326
spielte 277282
ини 277256
動 277224
peng@@ 277216
ヒ@@ 277097
内@@ 277068
ct@@ 277064
ário 277064
gilapdon 277040
naglibot 277035
tiilan 277031
tereyn 277019
industry 276970
kommen 276945
dzi@@ 276919
depend@@ 276846
ō@@ 276809
相@@ 276755
fond@@ 276708
ність 276638
Tran@@ 276631
network 276629
cla@@ 276617
estaba 276601
71 276589
ności 276548
ティ@@ 276546
Gran 276532
同年 276531
hall@@ 276456
상@@ 276439
Rem@@ 276432
כי 276296
idi 276279
water@@ 276265
legs 276257
eries 276233
76 276228
Wy@@ 276169
年代 276158
ج 276071
района 276060
voir 275996
press 275986
practice 275941
此 275891
89 275867
ите 275721
zel@@ 275687
하@@ 275682
మ@@ 275671
свя@@ 275613
stran@@ 275531
gruppo 275503
º 275472
Name 275437
Universidad 275424
た@@ 275422
Hab@@ 275402
Whit@@ 275401
поль@@ 275393
ature 275357
700 275352
dev@@ 275339
names 275249
Southern 275214
82 275213
Son@@ 275195
tätbefolkat 275171
ope 275101
sek@@ 275063
Ди@@ 275056
oblig@@ 275041
erie 275010
Lev@@ 275004
CO@@ 274951
control@@ 274859
ix 274816
일@@ 274803
sera 274779
чер@@ 274682
bbed 274672
Max 274639
has@@ 274591
ган@@ 274547
travel@@ 274497
scene 274417
0-@@ 274346
Later 274270
otras 274210
Jam@@ 274178
ایران 274172
می@@ 274158
skich 274151
facil@@ 274141
assist@@ 274119
arab@@ 274086
commercial 273955
location 273882
ده 273818
ват@@ 273799
anhianhi 273784
Mid@@ 273759
programa 273679
oan 273660
rij@@ 273652
Landes@@ 273567
interior 273389
ring@@ 273389
dob@@ 273352
Mehiko 273329
1890 273286
stron@@ 273169
clubs 273124
голо@@ 273116
D-@@ 273038
eck 273008
prefer@@ 272995
원@@ 272994
represented 272972
利@@ 272968
tempor@@ 272941
77 272940
begin 272893
ター 272878
利 272860
可以 272780
naselje 272721
држави 272703
రం 272590
Out@@ 272544
Series 272481
conserv@@ 272431
tuvo 272428
soc@@ 272426
ă@@ 272426
Pseud@@ 272384
initi@@ 272377
ène 272325
зем@@ 272301
grade 272273
ים 272247
Sau@@ 272246
federal 272184
sau@@ 272176
oth 272167
wan@@ 272062
97 272016
dow@@ 271925
property 271891
secolo 271845
gs 271832
destin@@ 271800
carried 271776
као 271751
ester@@ 271723
द 271679
Time 271649
族 271629
P-@@ 271616
AC 271612
atie 271520
78 271483
discus@@ 271480
kow@@ 271447
ত 271443
sai 271407
selbst 271375
railway 271322
10. 271270
ήταν 271181
fare 271163
軍@@ 271120
Research 271106
icus 271094
down@@ 271039
个 271015
スト 270985
uz 270978
ם 270978
Board 270881
مر@@ 270873
sports 270855
unde 270851
тар@@ 270830
,@@ 270811
Á@@ 270741
1897 270678
ються 270636
primeiro 270597
Ré@@ 270596
eb 270560
Medi@@ 270554
Dé@@ 270511
Đ@@ 270495
ності 270341
Bad@@ 270332
profes@@ 270332
decision 270293
traditional 270275
exp@@ 270209
sale 270203
most@@ 270137
fli@@ 270129
1896 270111
làm 270110
сни@@ 270102
label 270029
zon@@ 269967
departamento 269965
piece 269941
whether 269939
ator@@ 269903
pi 269882
Personen 269860
зав@@ 269843
to-@@ 269839
Dopo 269838
основ@@ 269835
Soviet 269802
arrived 269783
becoming 269737
Harry 269725
1899 269716
Ton@@ 269640
dov@@ 269582
ور 269566
dance 269522
believed 269486
Cop@@ 269468
unit@@ 269455
ња 269433
香港 269432
issues 269420
chapter 269410
части 269331
eros 269283
ета 269279
Government 269272
nal 269268
nine 269268
joh@@ 269257
Town 269239
band@@ 269200
primary 269191
chap@@ 269155
dates 269149
века 269089
است@@ 269070
shar@@ 269068
الك@@ 269062
Windows 269056
な@@ 269026
constru@@ 268986
basis 268981
organ@@ 268952
mul@@ 268893
lum@@ 268827
мая 268797
Many 268737
開@@ 268708
debut@@ 268686
menos 268673
owym 268663
ワ@@ 268640
inted 268633
vita 268595
stabil@@ 268589
mp@@ 268555
altres 268543
み@@ 268539
studies 268526
itz 268457
persones 268408
vent 268369
原@@ 268330
rich 268311
Jar@@ 268240
claimed 268232
revi@@ 268133
Vit@@ 268110
ব 268059
kä@@ 267998
הר@@ 267997
בה 267963
ugahon 267939
appe@@ 267932
прав@@ 267912
Pom@@ 267813
són 267758
oga 267754
Rod@@ 267743
despite 267739
influence 267649
regional 267590
bahn 267578
دة 267578
كانت 267526
Following 267455
personas 267445
開始 267411
む 267379
develop@@ 267351
ersch@@ 267323
зы@@ 267292
prest@@ 267289
Pacific 267244
aik@@ 267241
Rus@@ 267220
lun@@ 267170
arna 267148
autom@@ 267039
rant 267019
aut 267011
nước 266986
guy 266937
ου 266903
ход@@ 266893
Lau@@ 266825
Schul@@ 266764
дет@@ 266670
window 266651
ux 266645
dabei 266559
шу@@ 266538
gebiet 266467
fy 266442
income 266423
О 266410
Sun@@ 266375
ints 266359
talking 266350
מת@@ 266323
Euro@@ 266314
symbol@@ 266307
9.@@ 266274
Те@@ 266240
Ри@@ 266181
општини 266177
adap@@ 266169
Fur@@ 266152
uf@@ 266141
marca 266094
sal 266082
Kunhod 266067
aci 266016
هذه 265999
将 265839
program@@ 265833
tego 265823
F. 265810
Michigan 265758
lí@@ 265681
ای@@ 265679
EP 265670
stell@@ 265670
Tim@@ 265535
ater@@ 265514
達 265477
mon 265467
fit 265422
altre 265404
gir@@ 265332
movie 265291
Simon 265261
engine 265219
lon@@ 265188
Manuel 265176
mesmo 265116
That 265108
inin 265082
brit@@ 265070
Sydney 265010
eer 264992
G. 264986
glass 264961
теле@@ 264901
cold 264900
teg@@ 264897
determin@@ 264830
éri@@ 264830
國@@ 264830
blan@@ 264822
ohne 264822
тив@@ 264767
క@@ 264736
어@@ 264696
Ra@@ 264686
cion@@ 264657
hour 264653
sendo 264650
Li 264601
ಕ 264581
format 264556
조@@ 264513
دو@@ 264469
deb@@ 264453
ë@@ 264453
d. 264421
również 264341
usi@@ 264330
diverse 264323
છે 264279
1895 264268
були 264234
الف@@ 264224
ans@@ 264222
bol 264214
座 264203
u-@@ 264184
iku 264182
eci@@ 264139
ام@@ 264089
ード 264070
quella 264040
ши 264009
Di 263975
oug@@ 263959
ర@@ 263924
вом 263883
서@@ 263822
Reich@@ 263812
bom@@ 263790
ever@@ 263786
ord 263758
rov@@ 263748
except 263714
曾 263658
OS 263651
級 263641
Bab@@ 263628
bila 263622
ваний 263616
ender 263600
inter 263582
Ал@@ 263555
Mau@@ 263552
гре@@ 263531
ーン 263522
superficie 263505
Ali@@ 263435
Prince 263416
speed 263355
terletak 263340
ait@@ 263337
mill@@ 263332
さ@@ 263306
parti 263303
Bou@@ 263264
拉@@ 263262
gged 263260
indu@@ 263257
мы@@ 263254
Lep@@ 263232
esz@@ 263213
集 263194
legal 263164
版 263127
yg@@ 263120
ส 263112
годах 263086
jan 263069
lives 263067
neuen 263037
də 262978
aunque 262934
откры@@ 262923
Buenos 262908
ober@@ 262874
Он 262857
remember 262841
Насеље 262832
gewann 262809
pion@@ 262766
starting 262764
aim@@ 262696
fron@@ 262683
sand@@ 262680
watched 262627
thời 262623
esper@@ 262613
обра@@ 262600
umi 262560
вав 262510
من@@ 262501
zt 262482
step 262460
così 262368
ees 262345
Dev@@ 262263
qu 262238
agen 262158
Pic@@ 262140
ద 262105
produce 262100
ה 262067
A.@@ 262065
arts 262043
BC 262009
vend@@ 261969
amihanang 261928
tique 261918
савезној 261894
Hoch@@ 261886
11. 261885
access 261812
fils 261796
retur@@ 261779
experi@@ 261743
obefolkad 261708
iones 261697
구@@ 261669
fs 261659
ová 261655
sar 261628
kon 261587
gets 261566
Prema 261486
Brit@@ 261439
Georgia 261428
сер@@ 261405
kne@@ 261290
trat@@ 261281
politique 261203
kk@@ 261163
CD@@ 261161
Ab 261073
79 260995
sonra 260924
ались 260890
tent 260852
at-@@ 260839
zia 260765
תו 260728
ως 260685
обо@@ 260629
Summer 260625
Ges@@ 260566
ست@@ 260500
ví@@ 260482
Rat@@ 260474
Aires 260466
rend@@ 260463
bezeichnet 260457
nd@@ 260439
Cent@@ 260365
chor@@ 260280
cé@@ 260245
Bah@@ 260205
direct 260149
може 260113
平@@ 260102
quad@@ 260067
États-Unis 260021
cell@@ 259879
mos 259872
cola 259864
enda 259853
全 259836
Post@@ 259791
lại 259782
erk@@ 259749
aco 259737
ank 259704
ga@@ 259688
pir@@ 259676
ön 259651
Giovanni 259570
grew 259535
portra@@ 259489
Second 259424
host@@ 259420
مح@@ 259396
sta@@ 259262
ég@@ 259249
tere 259245
mycket 259196
ени 259145
drama 259101
isce 259081
esti 259080
해@@ 259072
的@@ 259062
particularly 259055
istes 259047
bac@@ 258985
suddenly 258966
あ@@ 258906
الذي 258792
senior 258784
nel@@ 258775
tournament 258762
家@@ 258695
isation 258661
ног 258655
87 258610
стре@@ 258529
Mundial 258518
cau@@ 258516
составе 258453
Men 258450
вла@@ 258410
edge 258409
Battle 258381
ством 258333
ols 258324
comp@@ 258320
Kil@@ 258261
officer 258191
head@@ 258151
conditions 258136
Je@@ 258113
czy@@ 258045
Show 258030
erst 257985
ول@@ 257976
där 257942
Ay@@ 257934
न 257924
武@@ 257819
girls 257803
України 257776
psych@@ 257751
octubre 257700
ign@@ 257592
System 257584
Spiel@@ 257536
Commission 257477
kie 257477
lob@@ 257447
26@@ 257416
bin 257413
Line 257353
empresa 257348
Ва@@ 257281
iet 257277
può 257254
tivo 257242
serv@@ 257212
deutscher 257208
companies 257183
Jersey 257177
时 257156
Paulo 257150
limited 257148
ných 257120
complex 257081
labor@@ 257036
50@@ 256979
Sta@@ 256962
ели 256955
ство@@ 256954
жение 256815
并 256778
uns 256777
dium 256695
Während 256624
兵 256529
Kr@@ 256491
дов 256482
bled 256473
Σ@@ 256471
management 256464
pulo 256460
Pour 256412
ح 256394
ズ 256393
โดย 256377
expression 256364
operation 256363
ул@@ 256350
Russia 256271
出身 256236
aug@@ 256090
tical 256067
район 256037
ules 256015
見@@ 256009
фа@@ 255982
illi@@ 255942
nost 255886
aster 255875
terms 255870
operations 255832
나@@ 255832
assemb@@ 255727
bing 255722
Stor@@ 255648
agreed 255565
Foi 255560
sad@@ 255557
Pop@@ 255501
直@@ 255399
ped@@ 255392
Ther@@ 255390
experience 255385
ensemble 255381
create 255377
教 255340
ened 255311
imo 255263
ases 255212
F-@@ 255140
illy 255077
lett 254969
-e 254950
リ 254920
answer 254875
フ 254861
avan@@ 254852
yr 254823
مة 254795
会社 254761
mid-@@ 254742
roi 254646
קה 254637
1st 254634
bles 254627
bon 254473
里 254449
ece 254364
kasagbotan 254355
filled 254350
94 254334
Monte 254286
نو@@ 254281
launched 254258
disco 254249
取 254108
tiv@@ 254038
kim 254031
cũng 254022
lage 253996
الص@@ 253917
և 253804
ská 253791
ult@@ 253765
ケ@@ 253756
Chris 253732
Nu@@ 253726
lado 253717
fish 253698
neue 253695
म 253692
simply 253687
27@@ 253675
Mike 253674
цев 253648
称 253646
tain@@ 253617
ligne 253565
versi@@ 253559
numerous 253523
学@@ 253353
waiting 253321
щи@@ 253294
Film@@ 253245
чем 253211
rement 253192
Maz@@ 253157
站 253153
nig@@ 253090
ική 252965
motor 252955
који 252951
ois@@ 252911
Pres@@ 252894
ech 252863
combin@@ 252812
author 252810
Ny@@ 252808
טי@@ 252802
Ду@@ 252770
èrent 252715
دی@@ 252704
God@@ 252690
Stre@@ 252551
sign 252528
個@@ 252483
nuevo 252482
Win@@ 252473
histori@@ 252371
86 252366
besch@@ 252363
ə 252353
mus 252303
dier 252271
мира 252235
repe@@ 252214
jel@@ 252196
вы 252174
alto 252076
Mot@@ 252070
territorio 252063
rid@@ 252060
Italy 252025
mez@@ 252012
және 252002
tema 251984
Um 251967
eth 251935
porte 251924
Area 251907
主要 251886
Sur 251846
вих 251822
klas@@ 251813
looks 251776
nan 251729
mom 251694
eras 251687
México 251679
hurt 251611
vý@@ 251598
República 251588
chief 251540
жа 251510
lange 251492
пар@@ 251490
dog 251454
Een 251420
пла@@ 251398
CA@@ 251358
器 251358
kad@@ 251354
sis@@ 251343
gehörte 251324
staat 251291
který 251274
высо@@ 251245
eful 251231
στη 251214
Championships 251194
happy 251191
lek@@ 251121
ман 251112
ели@@ 251076
мал@@ 251053
primeira 251004
SE@@ 250959
會 250944
municipality 250942
anna 250914
tives 250834
perhaps 250822
bil 250821
û@@ 250777
izan 250755
kou 250752
través 250696
側 250651
星 250642
Seg@@ 250635
square 250634
При 250619
histoire 250615
hou@@ 250605
physi@@ 250598
Kun@@ 250588
ER@@ 250585
Corporation 250567
種 250518
하여 250509
Federal 250400
título 250351
computer 250321
קי@@ 250316
Wilson 250304
им@@ 250261
contains 250237
text 250198
union 250096
sets 250066
arm@@ 250026
пле@@ 249971
ري@@ 249945
ear 249910
effect 249843
XVIII 249804
double 249746
mont 249738
sti 249736
bá@@ 249723
שנ@@ 249709
вий 249640
jos 249634
fru@@ 249585
部分 249529
عة 249527
Colorado 249521
trade 249521
hl@@ 249445
tale 249420
evidence 249343
Jahrhunderts 249338
posit@@ 249277
rée 249204
itat 249190
馬@@ 249186
Gef@@ 249152
스 249084
También 249076
له 249076
verso 249060
로@@ 249013
tras@@ 248978
dentro 248967
映画 248923
subject 248922
ć@@ 248900
克 248900
Puerto 248842
ذ@@ 248837
vin 248823
report 248739
Massachusetts 248724
nouvelle 248695
య@@ 248690
河 248666
partido 248642
But@@ 248639
icht 248639
Como 248628
стала 248606
ям 248605
weiter 248551
Ka@@ 248513
Civil 248509
40@@ 248478
Fu@@ 248418
impres@@ 248417
increased 248401
idas 248394
zat@@ 248332
ät 248286
ція 248281
industri@@ 248270
highest 248265
林 248218
matches 248209
një 248185
diplom@@ 248164
succes@@ 248132
特 248092
én@@ 248068
appear 248033
opport@@ 248010
сред@@ 248010
satu 247984
Rot@@ 247960
failed 247933
için 247930
電@@ 247893
دا@@ 247863
Ed@@ 247858
delstaten 247820
dois 247787
cry@@ 247786
Af@@ 247738
UN@@ 247723
redu@@ 247721
nacional 247677
1870 247595
Hum@@ 247589
sten@@ 247556
Live 247533
aling 247528
enter 247518
Law 247476
tos@@ 247467
tutti 247457
Anti@@ 247449
Ž@@ 247399
起 247388
と@@ 247383
sti@@ 247375
lights 247323
Pakistan 247295
eln 247244
tt 247238
тому 247173
sekä 247127
Dit 247122
Sin 247106
agua 247106
подацима 247079
XVI 247013
alcuni 247004
tree 246969
S.@@ 246956
iri 246954
ک 246910
offen@@ 246818
над@@ 246719
sto 246703
1889 246702
pak@@ 246678
kets 246662
Esc@@ 246601
Bak@@ 246559
мо 246534
zak@@ 246524
הק@@ 246453
houses 246413
cros@@ 246320
nahme 246270
Spe@@ 246266
Colombia 246240
時間 246221
isn 246215
nob@@ 246138
isches 246103
cargo 246093
response 246072
口 246072
hier@@ 246034
watch 246014
мом 245875
führte 245760
quar@@ 245752
tersebut 245710
ще@@ 245691
mam@@ 245677
că 245664
Pos@@ 245624
於@@ 245612
0s 245568
ety 245434
omkring 245415
вся 245413
Year 245407
qué 245401
سے 245397
理 245380
fus@@ 245374
зат@@ 245263
foot 245261
remains 245228
צי@@ 245206
hip 245205
clim@@ 245197
xe 245138
alan 245136
pus@@ 245063
fand 245053
一般 245047
ellos 245030
kok@@ 245029
economic 244989
quelques 244985
Irish 244944
ient 244906
pour@@ 244895
schen 244852
God 244849
ther 244845
된 244832
Lo 244825
bugnaw 244807
koje 244799
pří@@ 244774
共 244741
contr@@ 244720
uro 244715
cell 244704
arbeitete 244699
nova 244672
Res@@ 244651
Bob 244630
ño 244619
вар@@ 244576
Sud@@ 244566
ában 244559
lib@@ 244544
exten@@ 244529
само@@ 244529
stations 244466
eur@@ 244448
erstmals 244434
vast@@ 244387
solution 244283
I-@@ 244280
改@@ 244280
bou@@ 244261
റ 244239
komt 244191
מש@@ 244151
dr 244138
État 244077
aquest 244050
shown 244015
Nas@@ 243984
子@@ 243887
Has@@ 243860
jal@@ 243857
год@@ 243773
Q 243756
nhà 243747
qui@@ 243738
municipal 243734
política 243682
angen 243677
etto 243667
ència 243657
estaven 243649
бли@@ 243607
jednak 243576
schon 243569
had@@ 243565
которых 243469
tul@@ 243442
Fi@@ 243410
corpor@@ 243343
Premier 243256
球 243243
erten 243223
larger 243152
вые 243069
singer 243016
Raj@@ 242994
bec@@ 242965
Ben 242928
weight 242912
свою 242866
promo@@ 242822
vote 242772
động 242767
Ни@@ 242750
characters 242694
iser 242688
hope 242667
съ@@ 242648
wer 242580
Sat@@ 242557
лан@@ 242548
nj@@ 242495
ща@@ 242428
spre@@ 242418
الإ@@ 242397
когда 242376
camp@@ 242359
particip@@ 242359
Otto 242297
edly 242246
selon 242229
drive 242208
wait 242136
1885 242126
ancora 242122
impro@@ 242082
ському 242081
ennes 242003
ojn 241978
ark@@ 241971
explor@@ 241890
aven 241883
mereka 241879
ander@@ 241857
уже 241828
def@@ 241787
Elizabeth 241774
мар@@ 241723
டு 241706
pá@@ 241691
xa 241689
quindi 241640
río 241622
石@@ 241613
Neu@@ 241611
Taylor 241597
лом 241595
ниче@@ 241590
gut 241557
quello 241557
anu 241529
Amerika 241412
ската 241410
hacia 241316
לא@@ 241282
quali 241247
1880 241235
které 241220
発@@ 241091
aal@@ 241080
там 241052
miêu 241046
ху@@ 241023
victory 240968
kir@@ 240935
当時 240886
view@@ 240847
Gem@@ 240839
deriv@@ 240796
ções 240740
image 240694
Rab@@ 240682
dop@@ 240644
Mississippi 240575
associated 240574
chem@@ 240556
convin@@ 240539
unique 240531
cker 240522
ovo 240519
arian 240506
Lag@@ 240486
Steve 240414
hun@@ 240401
AN@@ 240399
kommun 240365
1893 240337
uw@@ 240309
aid 240278
some@@ 240275
zin@@ 240261
هذا 240248
directly 240233
ся@@ 240218
இந 240190
christ@@ 240092
dens 240027
Å@@ 240006
бит@@ 239985
kos@@ 239946
anth@@ 239941
Is 239874
klimatzonen 239869
우@@ 239740
نام 239737
fick 239725
£ 239716
sson 239706
chez 239701
tenía 239681
organisation 239674
majority 239630
கப 239630
Hot 239616
collabor@@ 239587
époque 239587
бан@@ 239579
第一 239551
må@@ 239516
code 239513
Korea 239491
sang 239327
Лю@@ 239325
pli@@ 239315
Wel@@ 239275
Gil@@ 239207
eastern 239196
famiglia 239178
着 239175
石 239156
ల@@ 239106
rel 239013
tí@@ 238984
lige 238907
سا@@ 238899
10-@@ 238805
ı@@ 238804
situé 238784
exer@@ 238780
edo 238776
寺 238766
Francis 238728
public@@ 238719
No. 238715
ního 238709
termine 238685
yan 238681
tradition@@ 238534
Wasser@@ 238526
vil 238470
beautiful 238463
problems 238444
AM@@ 238424
hiện 238400
cham@@ 238399
uan 238378
utes 238333
1894 238322
py@@ 238322
ও 238303
celle 238290
trouve 238286
Theatre 238244
Schw@@ 238229
fiz@@ 238217
init 238201
ες 238152
stars 238120
1892 238065
straight 238059
Sud 238055
美@@ 238051
reste 237997
馬 237988
Public 237981
skih 237980
recon@@ 237979
ών 237979
aje 237941
nahmen 237939
itas 237842
Stein@@ 237838
コン@@ 237782
cost 237746
又 237694
appears 237645
gehört 237639
zwe@@ 237595
él@@ 237547
Lab@@ 237540
可 237506
IN@@ 237473
ligh@@ 237473
yra 237452
separate 237436
født 237426
回@@ 237349
sá@@ 237340
discovered 237338
Da@@ 237337
tanom 237336
Port 237310
Tol@@ 237305
обще@@ 237253
clu@@ 237242
attempt 237183
Dav@@ 237171
yard 237164
ierten 237155
Greek 237148
ಮತ 237147
Field 237146
Rel@@ 237130
university 237114
Villa 237110
exemple 237077
слу@@ 237036
inge 237027
Süd@@ 236963
гар@@ 236862
parties 236825
Ali 236720
mientras 236701
жу@@ 236683
But 236651
what@@ 236647
賞 236632
mang@@ 236621
einige 236587
extra@@ 236521
Sum@@ 236490
ツ@@ 236428
四 236372
presso 236342
adunay 236325
ホ@@ 236300
nhất 236235
corner 236185
Liste 236184
Song 236134
annual 236119
thor@@ 236075
pac@@ 236065
라@@ 236035
sondern 236020
gat@@ 235979
1891 235878
additional 235841
ческие 235834
augh@@ 235783
bukid 235779
owed 235764
transport 235710
ων 235657
Franz 235626
skulle 235575
pretty 235568
schule 235559
Railway 235498
gues 235497
ija 235493
fram@@ 235482
retired 235468
天 235468
Stu@@ 235466
sequ@@ 235459
テレビ 235451
beat 235391
років 235318
abad 235294
sources 235293
wed@@ 235285
obras 235239
Vir@@ 235208
Hay@@ 235200
medical 235187
американ@@ 235187
chron@@ 235179
Education 235177
materi@@ 235159
please 235124
mat 235115
Cra@@ 235107
aient 235062
ener@@ 234991
10.@@ 234972
ذلك 234954
medal 234939
ペ@@ 234933
ে 234920
28@@ 234918
drew 234886
fünf 234883
serving 234883
Deutschen 234853
nic@@ 234846
对 234836
ña 234721
سی@@ 234706
tracks 234692
distribu@@ 234683
ind 234682
ез@@ 234682
лы@@ 234656
fik@@ 234623
stret@@ 234622
coc@@ 234601
agu@@ 234599
π@@ 234598
programs 234572
enz 234504
הפ@@ 234504
く@@ 234497
нен@@ 234478
sche 234396
Kunst@@ 234389
activities 234382
usk@@ 234380
vet 234374
deleg@@ 234353
ско 234350
stellung 234335
како 234272
introdu@@ 234237
varios 234214
seconda 234206
nord@@ 234202
ん@@ 234197
z-@@ 234172
Бе@@ 234081
нах 234030
Sou@@ 234015
Бер@@ 234012
weise 234007
fé@@ 234000
Hav@@ 233963
女 233954
خود 233950
дво@@ 233941
oun@@ 233937
self 233936
Eastern 233924
Ball@@ 233920
uren 233876
шен@@ 233857
8,@@ 233830
30. 233829
película 233797
lut@@ 233781
Titel 233767
Costa 233752
selected 233705
光 233704
command 233701
mutta 233700
এবং 233687
Ор@@ 233674
operated 233630
especie 233623
מן 233602
скому 233553
う@@ 233549
Zu 233545
세@@ 233538
Lind@@ 233485
kot 233480
הג@@ 233476
дж@@ 233464
dres@@ 233452
21. 233451
глав@@ 233412
K. 233376
pode 233347
estos 233345
重 233303
ting@@ 233266
sitting 233247
До 233224
bre 233163
ক 233129
Musi@@ 233104
цен@@ 233077
Beach 233071
forte 233065
má 233045
ės 232991
194@@ 232990
Ten@@ 232988
että 232978
دو 232977
security 232963
音 232908
Ç@@ 232880
чной 232838
prison@@ 232835
Bos@@ 232833
села 232805
recent 232799
roc@@ 232795
nol@@ 232783
pos 232764
senza 232750
przy 232735
Media 232693
חו@@ 232688
také 232677
CH@@ 232670
區 232618
много 232607
主 232598
вым 232510
sites 232467
atura 232461
мест@@ 232422
boys 232421
首 232381
కి.మీ. 232373
cuatro 232366
abil@@ 232360
္ 232311
confer@@ 232278
oka 232241
nearby 232225
ós 232199
artists 232181
FM 232178
τις 232164
чтобы 232155
Mand@@ 232137
subtropikal 232128
isol@@ 232114
עד 232079
one-@@ 232051
SC 231983
nab@@ 231976
religious 231952
dernier 231907
Bran@@ 231869
umogon 231846
iter 231831
sydöstra 231814
Pla@@ 231774
M-@@ 231755
dice 231722
Mik@@ 231675
bers 231672
arc@@ 231644
nan@@ 231642
closer 231603
comuna 231538
instal@@ 231492
Omgivningarna 231485
Nav@@ 231481
حيث 231478
dh@@ 231464
tec@@ 231455
Кон@@ 231454
kem@@ 231447
Sea 231385
ional 231376
Аль@@ 231331
amihang-kasadpan 231327
実@@ 231320
кий 231298
isto 231282
Mari@@ 231264
juin 231258
番組 231237
ע 231229
eter 231170
районе 231085
chen@@ 231037
Jer@@ 230990
contribut@@ 230957
rt 230935
eman 230914
августа 230909
β@@ 230861
dered 230859
ths 230848
find@@ 230832
lets 230795
permet 230771
atori 230710
bia 230705
yer@@ 230697
ற 230680
לים 230637
Wo@@ 230611
县 230608
exactly 230606
연@@ 230560
principalmente 230530
sexual 230529
格@@ 230522
administration 230471
1888 230468
ensuite 230466
zuen 230449
contact 230404
than@@ 230376
кат@@ 230368
François 230361
marine 230316
тен@@ 230297
supported 230288
cated 230281
Ві@@ 230249
тур@@ 230248
pose 230157
הם 230151
ści@@ 230148
Ford 230112
الش@@ 230108
тах 230087
قرار 230068
Mais 230043
rund 230034
quanto 230025
wol@@ 229916
gt 229831
伊@@ 229827
anya 229805
neb@@ 229789
Henri 229771
silver 229752
dt 229735
文化 229715
vul@@ 229691
Ry@@ 229644
broke 229618
В. 229593
Lewis 229525
тами 229506
attra@@ 229505
ady 229503
gikan 229501
యం 229501
RA@@ 229482
See 229480
德 229475
Jud@@ 229459
वर 229446
ached 229395
ash 229359
дан 229320
Adam 229313
född 229292
سنة 229284
nebo 229237
pav@@ 229227
isti 229225
meaning 229188
amiento 229159
民 229141
Davis 229126
prend 229114
aler 229099
estat 229056
veget@@ 229032
ち 229027
年), 229015
之@@ 229013
People 228996
Foundation 228985
тор 228971
Sak@@ 228965
kommunen 228958
note 228953
Berg 228939
기 228927
lers 228906
Му@@ 228874
SA@@ 228859
כל 228833
bau@@ 228807
Kong 228781
ати@@ 228756
mei 228750
fäl@@ 228719
tö@@ 228670
Wit@@ 228606
desc@@ 228569
والم@@ 228462
Lig@@ 228459
ilor 228390
első 228373
Londres 228314
Tat@@ 228265
Olympics 228230
offer 228222
爾@@ 228176
enced 228149
ór@@ 228149
fif@@ 228084
業 228075
alia 228070
Hö@@ 228049
nor 228042
iza 228041
gers 228000
assum@@ 227996
zab@@ 227993
äm@@ 227987
honor 227933
étant 227933
marriage 227906
gun@@ 227834
VII 227793
ills 227754
cuenta 227742
inde@@ 227741
PS 227724
Major 227704
dalle 227669
étaient 227642
各 227617
通@@ 227609
hon 227606
aran 227575
hvor 227560
acions 227519
enes 227495
isch-@@ 227478
Пи@@ 227477
tid 227466
bah@@ 227425
histor@@ 227417
lung 227375
Bern@@ 227374
ex-@@ 227363
baby 227360
aming 227347
пат@@ 227323
pueden 227306
habagatang-kasadpan 227248
Ari@@ 227207
ful@@ 227207
remaining 227199
rey 227197
μ@@ 227168
iled 227167
木 227133
seines 227047
несколько 227040
buvo 227034
stop@@ 226943
lor@@ 226930
cré@@ 226920
Pur@@ 226918
result@@ 226916
platser 226887
uer@@ 226887
iques 226736
hotel 226707
室 226704
Diego 226700
Liber@@ 226679
hot@@ 226662
aw 226650
hau@@ 226641
пан@@ 226631
duc@@ 226623
Tony 226604
ushed 226594
ejo 226577
Johannes 226569
lip@@ 226552
ье 226544
؛ 226486
الب@@ 226481
Internet 226456
ý@@ 226438
Cruz 226423
Sul@@ 226396
Meg@@ 226395
Maj@@ 226392
kle@@ 226372
feature 226363
inus 226344
Bis@@ 226339
estab@@ 226305
син@@ 226213
département 226207
"@@ 226203
ologia 226175
Hospital 226166
goals 226159
Alfred 226155
dom 226145
kov 226129
rica 226080
территории 226014
зи 225982
府 225972
ios 225911
arono 225899
została 225864
Of 225827
results 225827
00@@ 225804
Sein 225769
habagatang-sidlakan 225768
oms 225716
Od@@ 225682
pron@@ 225660
ת 225659
neu 225654
Deze 225603
fet@@ 225562
près 225562
éch@@ 225558
jas 225554
nus 225554
ives 225512
theory 225453
transport@@ 225427
αν@@ 225368
chef 225346
Wi@@ 225216
headed 225200
Bun@@ 225192
ця 225182
Tit@@ 225175
合@@ 225158
定@@ 225152
ativo 225097
She@@ 225035
Lis@@ 225025
ar-@@ 224958
град 224912
fos@@ 224903
Ł@@ 224892
Ве@@ 224877
specific 224866
lj@@ 224839
вый 224837
referred 224735
nhiều 224701
sides 224689
mix@@ 224678
shire 224650
ブ 224646
вает 224641
је@@ 224462
poor 224429
Kle@@ 224377
Chief 224364
ост@@ 224344
ын@@ 224329
auer 224324
FA 224247
団 224246
ני 224185
ży@@ 224177
Toronto 224176
év@@ 224142
fase 224067
News 224057
чка 223992
ว่า 223944
estate 223915
sex@@ 223876
ещё 223863
Loc@@ 223848
character@@ 223832
riktning 223829
ões 223818
Haus@@ 223796
建 223790
Moscow 223758
cinco 223756
தில 223742
1886 223731
ordered 223711
cji 223697
leh@@ 223658
anga 223648
29@@ 223623
skri@@ 223601
père 223596
gaze 223595
എന 223569
erer 223555
Bud@@ 223541
sol 223521
alist@@ 223510
ата@@ 223498
pet 223491
autor 223457
Congress 223422
Rev@@ 223398
nie@@ 223391
кор@@ 223390
参加 223369
touch 223358
emo@@ 223295
Conference 223291
bal 223284
kamadan 223269
ების 223268
erre@@ 223248
ją 223162
util@@ 223117
марта 223110
elements 223073
rul@@ 223069
bow@@ 223065
ಲ 223061
amed 222989
ус@@ 222959
(昭和 222954
心 222915
his@@ 222898
vik@@ 222876
award 222868
רים 222864
Their 222806
布@@ 222790
initially 222779
realized 222766
tej 222744
годы 222731
nen@@ 222713
atas 222697
Jun@@ 222658
itude 222584
nombreux 222581
administrative 222550
AS 222509
чна 222498
жи 222490
page 222475
Roc@@ 222469
hausen 222369
Kel@@ 222334
mü@@ 222315
流 222298
Tour@@ 222297
vart 222285
atta@@ 222258
bé@@ 222257
Georg 222235
color@@ 222195
事@@ 222195
haf@@ 222179
จะ 222173
fot@@ 222165
לו 222103
ност 222069
focus 222038
FI@@ 222003
financi@@ 221983
bid@@ 221965
earned 221929
ъ@@ 221922
positions 221896
sun 221885
чі 221824
oir 221818
ικό 221816
rare 221814
Jacques 221806
hes@@ 221774
Miguel 221772
סו@@ 221750
slightly 221717
sagolsagol 221706
ース 221690
рах 221672
chia 221669
Lac@@ 221663
ilə 221663
rak@@ 221641
department 221635
ι@@ 221620
kru@@ 221597
rates 221547
xã 221466
notable 221439
eca 221425
ರ 221372
opsis 221352
Desa 221314
atter@@ 221297
carrière 221275
ז 221236
Pir@@ 221212
кры@@ 221171
wel 221152
Latin 221143
際 221107
neben 221067
Meter 221038
erde 221030
nuovo 221019
第@@ 221012
政治 220985
cel 220929
medio 220918
kiem 220910
infor@@ 220907
ючи 220893
call@@ 220847
soldiers 220818
里@@ 220811
Ga@@ 220810
showed 220760
rad 220759
negli 220752
ager 220722
kli@@ 220712
volume 220674
iers 220657
wy 220656
长 220651
stom@@ 220614
25. 220574
лич@@ 220574
jour@@ 220543
rata 220537
един@@ 220524
Sant 220508
T. 220494
vec@@ 220493
shed 220441
responsible 220428
incorpor@@ 220321
元@@ 220222
heat 220212
champion 220199
membres 220163
shirt 220129
Entertainment 220119
formes 220119
Nat@@ 220090
ray 220056
Bag@@ 220045
1878 220019
terme 219981
Fox 219966
spread 219900
association 219852
entos 219826
II. 219792
variety 219783
weer 219773
которой 219770
innen 219762
després 219760
była 219743
scri@@ 219712
Gruppe 219709
尔 219702
SP@@ 219665
commun@@ 219660
Ach@@ 219657
usual 219638
および 219601
liv@@ 219584
sens 219575
Rück@@ 219570
adora 219550
− 219509
presented 219499
pää@@ 219498
dí@@ 219491
outros 219480
תה 219480
1860 219457
iti@@ 219449
SS@@ 219400
κ@@ 219370
ată 219368
января 219356
ister 219347
모@@ 219321
feder@@ 219289
قبل 219280
theo 219274
zweiten 219267
hatten 219263
других 219213
ého 219198
kau@@ 219191
ure@@ 219175
ό 219106
夫 219102
unda 219089
กับ 219081
лення 219046
society 219019
古@@ 219000
зі@@ 218950
다@@ 218937
cking 218935
сті 218930
.000 218885
تم 218852
ply 218835
atan 218811
1848 218802
asing 218802
став 218801
Van@@ 218775
часть 218762
amihang-sidlakan 218749
番 218727
イン@@ 218718
há@@ 218658
レー@@ 218655
z. 218625
מא@@ 218601
mí@@ 218599
wan 218595
kop 218571
най 218563
unu 218554
composed 218548
ały 218535
道@@ 218533
Ти@@ 218528
吉@@ 218523
erd 218516
Bell@@ 218499
église 218494
foc@@ 218490
positive 218484
wenn 218455
genannt 218444
Na@@ 218377
filme 218364
atten@@ 218346
Pro 218343
aches 218290
декабря 218266
records 218235
oides 218231
示 218208
convers@@ 218207
eira 218181
gobierno 218166
deuxième 218149
お@@ 218135
лов 218128
tern 218124
tó@@ 218110
zal@@ 218105
etc 218090
ową 218081
distingu@@ 218076
הח@@ 218054
01 218048
Anne 218044
prison 218037
Leh@@ 218032
cover@@ 218006
中央 217989
とも 217985
yw@@ 217955
Naj@@ 217943
tigt 217870
watching 217868
ión 217857
receiv@@ 217831
Les@@ 217819
ню 217816
software 217781
和@@ 217781
fix@@ 217764
али@@ 217673
ode 217648
mil 217644
besteht 217621
фор@@ 217612
ження 217611
連@@ 217582
italiano 217544
classi@@ 217498
ury 217479
haven 217477
置 217459
compte 217445
lem 217415
의@@ 217402
тру@@ 217364
punkt 217344
Bad 217314
diferentes 217292
Game 217280
вели@@ 217259
decide 217238
地区 217202
Aqu@@ 217183
kers 217183
ták 217182
גי@@ 217176
ته 217146
ème 217135
races 217081
online 217056
アン@@ 217017
ään 217010
types 217004
président 216995
Cit@@ 216978
лы 216975
edad 216968
Poly@@ 216957
화@@ 216923
От@@ 216901
వ@@ 216885
地方 216881
schließlich 216877
δ@@ 216867
fog@@ 216857
safe 216854
wind 216802
Menschen 216764
1887 216738
unos 216717
with@@ 216691
hui 216685
мов 216667
фе@@ 216665
истори@@ 216652
Office 216648
militar 216627
apa 216620
ing-@@ 216620
fear 216586
رة 216583
zap@@ 216576
sée 216549
phát 216465
Gold 216447
Ils 216437
sotto 216434
Vic@@ 216402
vert 216401
qua 216372
individuals 216333
انی 216309
провод@@ 216299
között 216257
gren@@ 216256
increase 216242
folgenden 216235
représent@@ 216213
zah@@ 216171
econom@@ 216147
получил 216128
troops 216063
soft 216049
Ludwig 216026
وب@@ 215967
fighting 215966
canal 215956
anje 215947
commit@@ 215881
פר@@ 215875
egy@@ 215774
trees 215753
modific@@ 215751
falls 215745
mainly 215716
julio 215714
Да@@ 215713
quer 215685
1871 215650
É 215631
Bureau 215625
join 215567
pushed 215524
rent 215495
Britain 215461
Bed@@ 215459
Va 215453
stories 215450
fylke 215415
Director 215376
liste 215370
uli 215364
großen 215333
.com 215311
mayo 215288
Ent@@ 215274
Andrew 215238
која 215231
equip@@ 215176
environ 215147
sever@@ 215126
こ@@ 215125
amen@@ 215010
Fe@@ 215004
ა 214988
ograph@@ 214978
último 214976
Al-@@ 214950
bury 214900
公司 214884
лин@@ 214864
ців 214864
oren 214853
iel@@ 214803
ಟ 214802
rier 214799
1884 214760
beyond 214757
ప@@ 214750
П 214742
zurück@@ 214719
v. 214695
Durch 214666
provid@@ 214627
goes 214601
seeing 214598
s. 214561
ordre 214557
Ло@@ 214539
дат@@ 214527
Пе@@ 214483
deutsche 214467
ار 214444
rance 214400
لة 214374
ә 214360
ница 214350
بی@@ 214350
stellen 214330
Norte 214323
albums 214319
fly 214312
icht@@ 214312
semb@@ 214299
지 214279
Kö@@ 214275
mondo 214264
ปี 214241
dieses 214174
Ky@@ 214091
shut 214080
boreal 213997
ismus 213996
Spain 213973
zou 213954
шего 213917
condu@@ 213860
corso 213843
studierte 213809
組 213785
letter 213780
地域 213733
Scotland 213713
пло@@ 213709
поли@@ 213708
sto@@ 213683
ץ 213667
todas 213649
может 213648
Austria 213637
Jewish 213636
мя@@ 213632
combat 213611
кро@@ 213586
Bus@@ 213579
septembre 213515
нај@@ 213498
mov@@ 213463
記 213458
easy 213456
ivo 213454
diversos 213428
niveau 213396
רות 213376
Mich@@ 213362
рав@@ 213360
tori 213359
Geschichte 213327
oft 213232
bab@@ 213221
cities 213220
år@@ 213181
bie 213162
emi 213140
산@@ 213121
native 213092
neces@@ 213082
ét 213049
tid@@ 213020
hes 213012
其中 212973
mois 212885
orden 212881
сон 212855
vier@@ 212837
financial 212816
mehrere 212803
دي 212793
connec@@ 212787
agent 212760
region@@ 212746
suas 212727
four@@ 212716
ayant 212701
Peak 212674
巴@@ 212663
ното 212652
ając 212635
Ca@@ 212619
instruc@@ 212488
kiss 212478
yılında 212451
orum 212441
comment@@ 212436
Arten 212366
打@@ 212351
hap@@ 212340
gdzie 212303
savanna 212253
oficial 212238
aden 212216
lassen 212200
difficult 212198
membre 212167
posses@@ 212116
ulo 212101
ії 212067
tionen 212038
Rol@@ 212033
80@@ 212021
Minnesota 212014
rok 212001
ًا 211984
homme 211976
neighbor@@ 211923
paid 211905
ihrem 211865
Jim 211856
aker 211835
strateg@@ 211790
década 211785
kni@@ 211773
Ха@@ 211760
要 211701
benef@@ 211673
lack 211662
ара 211624
июля 211585
אך 211583
ancient 211579
Sverige 211573
tice 211556
рай@@ 211528
letzten 211503
esis 211471
acqu@@ 211469
nac@@ 211440
importantes 211408
ours 211361
sett@@ 211327
animal 211308
Tru@@ 211287
assi@@ 211287
veel 211282
Night 211244
pseud@@ 211243
edu@@ 211188
pinakaduol 211178
Magnoliopsida 211127
genre 211117
ems 211108
ał@@ 211084
น 211063
List 211041
nommé 211035
вано 211030
話 210986
ед@@ 210978
قا@@ 210976
popular@@ 210968
Santo 210964
cars 210957
pec@@ 210941
2nd 210938
Ken@@ 210874
Zeit@@ 210856
день 210848
elet@@ 210830
Según 210816
debido 210802
growing 210802
Ras@@ 210789
jour 210761
throat 210755
visini 210736
Ту@@ 210690
SS 210652
bas 210636
ロー@@ 210605
DC 210601
broken 210582
еле@@ 210580
után 210572
dun@@ 210567
nio 210532
bộ 210481
1864 210480
nast@@ 210477
тин@@ 210407
Pad@@ 210394
هٔ 210368
numbers 210355
Las@@ 210340
İ@@ 210317
Poland 210301
cultura 210276
provides 210265
fatto 210256
ə@@ 210243
speak 210147
bay 210133
vagy 210110
uss 210106
wen@@ 210106
Vo@@ 210086
nó 210063
Volks@@ 210049
Finland 210045
bour@@ 210029
miejsce 210006
entonces 209966
Cos@@ 209958
surpris@@ 209956
Ces 209935
אל 209914
кою 209907
sehen 209886
在@@ 209878
etc. 209874
el-@@ 209859
inu 209816
多く 209813
タ 209793
Sam 209779
presenta 209777
planned 209774
superior 209771
dues 209762
iker 209752
тора 209740
pre-@@ 209719
spoke 209668
ES@@ 209627
stag@@ 209619
сту@@ 209609
musi@@ 209513
von@@ 209506
Мексику 209477
已 209472
wiel@@ 209464
sleep 209462
modern@@ 209441
jou@@ 209421
Га@@ 209412
geen 209399
leta 209399
hành 209398
Branch 209394
tiin 209391
റെ 209372
22. 209358
junio 209356
removed 209330
Arizona 209328
campus 209305
Wien 209287
países 209269
중@@ 209248
walls 209188
ун@@ 209168
prime 209156
сан@@ 209152
RE@@ 209149
dru@@ 209147
prä@@ 209146
கும 209146
aar@@ 209079
Tex@@ 209065
Roger 209040
平方公里 209021
conduc@@ 208963
ém 208911
steps 208890
сентября 208890
ST@@ 208871
recording 208830
דים 208820
subsequently 208815
Py@@ 208795
Sek@@ 208790
населения 208789
già 208784
рами 208729
リー@@ 208721
Another 208720
chan@@ 208682
кли@@ 208666
которая 208631
producer 208629
heav@@ 208587
igo 208576
första 208565
ему 208557
championship 208540
1882 208533
Camp@@ 208493
au-@@ 208459
Tod 208442
tung 208434
яв@@ 208388
roman 208355
extended 208344
ఈ 208344
jes 208313
రా@@ 208312
belong@@ 208309
živelo 208279
Во@@ 208258
ín@@ 208237
tag 208219
頭 208199
20-@@ 208196
ја@@ 208180
фо@@ 208175
Kab@@ 208155
rí@@ 208152
ი 208097
נים 208096
ヤ@@ 208093
fut@@ 208082
Sun 208068
Hong 208029
vill@@ 208027
teil@@ 208011
ried 208006
選 208001
či 207955
ద@@ 207935
سو@@ 207882
technology 207849
alty 207841
ヴィ@@ 207802
зан@@ 207782
tail 207765
memiliki 207715
フェ@@ 207702
死 207674
gens 207665
лу 207643
concept 207619
Lady 207600
inde 207567
poly@@ 207542
gang@@ 207534
Gener@@ 207528
Corps 207523
amount 207481
gada 207479
č 207479
communes 207478
Three 207446
своей 207381
consists 207372
вич 207363
amihanan-sidlakang 207359
對@@ 207325
民@@ 207320
flor@@ 207303
alleg@@ 207293
Sant@@ 207292
questions 207291
nadmorskoj 207290
нее 207271
開発 207269
gebied 207257
成@@ 207198
Miss 207185
dapat 207168
classe 207166
sot@@ 207146
利用 207109
الر@@ 207092
juillet 207087
193@@ 206995
lade 206932
ヘ@@ 206897
share 206870
ラン@@ 206862
uni 206831
оди@@ 206787
dorf 206775
algunos 206769
competed 206766
Hin@@ 206720
manifest@@ 206715
အ@@ 206703
Feder@@ 206702
diesen 206657
onen 206637
ந 206605
зе@@ 206550
вал@@ 206532
Wood@@ 206529
allerdings 206516
個 206491
raid 206470
rue 206418
ств 206388
ildə 206365
rut@@ 206362
digital 206358
kat 206343
教育 206337
בית 206314
ices 206311
three-@@ 206255
Iz@@ 206247
Mem@@ 206247
aquesta 206217
aggi@@ 206211
Oxford 206164
große 206049
ob 206034
fica 206030
dea 206004
当@@ 206001
rik 205988
1863 205973
октября 205932
々 205921
1881 205903
28. 205894
firm 205876
Ah@@ 205873
nost@@ 205860
läng@@ 205847
rup@@ 205836
vě@@ 205827
carrera 205806
descri@@ 205799
AD@@ 205791
rural 205791
كما 205789
governo 205782
Parliament 205777
дру@@ 205774
cust@@ 205747
ogni 205746
Route 205680
diff@@ 205675
policy 205668
aza 205661
ň@@ 205660
libro 205605
Avenue 205565
áz@@ 205558
secon@@ 205557
בו 205553
sector 205529
所@@ 205488
Vas@@ 205481
tha 205475
celui 205474
tegen 205458
raj@@ 205381
発売 205359
fair 205348
полити@@ 205338
build 205333
minor 205324
septiembre 205320
inici@@ 205314
akti@@ 205313
classes 205289
oe 205282
Minist@@ 205260
soll 205253
kum@@ 205224
kot@@ 205210
Census 205161
ká@@ 205161
сел@@ 205150
bygg@@ 205148
porta 205145
otra 205111
Post 205075
Natur@@ 205023
commission@@ 205016
presence 205003
zem@@ 204999
уз@@ 204964
squadra 204961
anci@@ 204959
fam@@ 204955
以及 204932
reven@@ 204904
ple 204853
espèce 204844
aggio 204840
Κ@@ 204836
立@@ 204823
保@@ 204813
dos@@ 204797
habit@@ 204784
ев@@ 204784
temple 204752
なお 204749
ką 204747
Radi@@ 204740
pred@@ 204735
PC 204728
ē@@ 204721
Disney 204706
command@@ 204701
っ@@ 204694
AP@@ 204682
Flor@@ 204681
UEFA 204635
ogen@@ 204624
latter 204618
terra 204606
viv@@ 204604
brig@@ 204595
Despite 204578
字 204573
июня 204556
sö@@ 204545
illing 204477
шли 204472
зе 204452
Amsterdam 204443
Kilometer 204437
cions 204387
sollte 204384
安 204373
卡@@ 204370
zenia 204344
editor 204338
web 204337
región 204336
grad 204325
etan 204312
Coast 204303
unding 204300
kiego 204278
ignor@@ 204264
vista 204229
rob@@ 204198
card 204192
\) 204173
жан@@ 204101
finals 204095
gul@@ 204088
щен@@ 204083
Assembly 204064
human@@ 204052
fab@@ 204021
arten 204020
Institut 203980
مع@@ 203970
anas 203959
interno 203953
חי@@ 203915
노@@ 203913
ія 203874
kwam 203852
seasons 203812
prior 203754
Venezuela 203718
Order 203703
Cerambycidae 203694
Mach@@ 203692
ają 203660
24. 203653
1861 203617
eze 203574
車@@ 203554
றும 203533
estar 203524
Golden 203520
rir 203501
จาก 203491
geslacht 203454
Kim 203418
23. 203398
信@@ 203377
settled 203373
beste 203335
Manchester 203328
科@@ 203298
Rep@@ 203272
نی@@ 203194
ёт 203175
Gall@@ 203163
Nic@@ 203162
fav@@ 203149
交@@ 203146
вин@@ 203084
pren@@ 203055
格 203053
nin@@ 203046
secret 203027
América 203014
чки 203007
ಯ 202983
esia 202973
identific@@ 202946
ят@@ 202939
souvent 202936
Gru@@ 202927
Missouri 202915
existence 202915
maior 202912
تح@@ 202908
ری@@ 202893
existe 202825
ských 202821
oil 202815
octobre 202750
wieku 202746
Anfang 202745
biolog@@ 202740
ν@@ 202729
council 202698
divided 202693
זו 202667
janvier 202654
Ze 202653
Sec@@ 202607
is-@@ 202585
rian 202574
объ@@ 202572
diver@@ 202560
Historic 202559
rh@@ 202461
Vin@@ 202450
kasarangan 202446
Sport@@ 202415
кова 202415
heim@@ 202342
partner 202329
ющий 202326
Jawa 202324
точ@@ 202319
amihanan-kasadpang 202309
할 202278
ά 202277
titolo 202241
enero 202214
Shar@@ 202211
pur 202191
ファ@@ 202184
hal 202183
fan@@ 202162
denomin@@ 202149
emis@@ 202140
のみ 202125
1865 202118
cting 202116
tone 202070
ј 202020
ami@@ 201994
pels 201987
Для 201985
value 201975
sino 201959
ο@@ 201949
Samuel 201885
leaves 201868
без@@ 201834
解@@ 201773
cil@@ 201761
tok@@ 201757
Dutch 201733
eck@@ 201679
గ@@ 201645
smaller 201617
concer@@ 201591
אר@@ 201583
seconds 201570
gaz@@ 201563
München 201554
cup@@ 201552
además 201538
дел 201529
stairs 201519
osz@@ 201449
moder@@ 201444
Ret@@ 201437
店 201420
ied@@ 201397
physical 201397
Bog@@ 201391
진@@ 201364
rice 201293
intended 201278
ена 201271
colleg@@ 201255
ору@@ 201251
które 201239
師 201211
lop@@ 201190
glob@@ 201183
halten 201180
Nueva 201177
eniu 201167
Hier@@ 201154
lus@@ 201109
aantal 201097
Fernando 201067
знач@@ 201044
nar 201042
hebben 200973
чного 200959
obvi@@ 200957
파@@ 200946
dette 200919
well-@@ 200911
1862 200908
propor@@ 200895
picked 200889
ات@@ 200884
ити@@ 200877
כי@@ 200870
界 200859
multiple 200810
Castle 200790
een@@ 200790
ński 200784
nije 200710
ość 200710
största 200673
Brian 200672
無 200672
tore 200666
infra@@ 200664
toda 200634
після 200627
no-@@ 200614
oč@@ 200601
باشد 200583
Tennessee 200578
igu@@ 200518
caus@@ 200517
grado 200512
ým 200487
asse 200477
stav@@ 200413
авто@@ 200405
Kop@@ 200403
ji@@ 200358
役 200349
IC@@ 200347
образо@@ 200335
Ma 200325
ident@@ 200322
czy 200293
mile 200291
jeu 200282
шие 200268
ські 200255
NBA 200232
alar@@ 200162
pola 200159
ザ@@ 200154
През 200126
стали 200120
1879 200100
wes@@ 200061
protection 200011
სა@@ 199999
bylo 199996
кру@@ 199949
blieb 199946
эк@@ 199938
effort 199931
использо@@ 199902
individu@@ 199884
народ@@ 199878
ப 199874
tir@@ 199852
Μ@@ 199845
verse 199844
1日 199828
Home 199809
пов@@ 199799
있는 199777
frente 199756
國 199756
王@@ 199734
acting 199690
先@@ 199689
rule 199688
ulu 199667
h-@@ 199645
lake 199624
ully 199619
eres 199609
љ@@ 199599
2011. 199597
Stephen 199581
afin 199579
bast@@ 199574
acquired 199572
spring 199549
overall 199517
Bron@@ 199516
insieme 199505
shif@@ 199470
Пре@@ 199430
र@@ 199427
eerd 199423
త@@ 199417
ność 199401
kut@@ 199396
draw 199363
attem@@ 199360
just@@ 199320
cum@@ 199302
рабо@@ 199269
yar@@ 199259
apenas 199234
населення 199205
プロ@@ 199137
Nik@@ 199119
mö@@ 199099
führt 199086
Вы@@ 199062
ίας 199058
состоя@@ 199058
0,000 199049
ew 199024
ace@@ 199020
aby 198949
Gul@@ 198925
ট 198924
sf@@ 198854
апреля 198837
27. 198812
depois 198794
коло@@ 198789
simil@@ 198748
1876 198742
iem 198727
Michel 198701
foreign 198692
وم@@ 198683
hundred 198619
isse 198610
1883 198580
ith@@ 198568
send 198544
sł@@ 198531
broadcast 198524
két 198475
개@@ 198448
Mill@@ 198435
像 198399
בע@@ 198383
26. 198362
Hollywood 198359
затем 198358
军 198333
turning 198311
τ@@ 198299
tradition 198263
Bé@@ 198249
группы 198244
190@@ 198216
fying 198180
Ric@@ 198144
På 198093
Janeiro 198044
estre@@ 198042
шла 198025
mel 197942
лов@@ 197913
interpre@@ 197901
programme 197856
follow 197805
Earth 197792
Lov@@ 197789
Kultur@@ 197781
ports 197711
clar@@ 197701
captain 197689
rus 197677
リア 197667
truth 197638
Tag@@ 197631
Pit@@ 197628
木@@ 197609
vak@@ 197606
borough 197601
orang 197595
Campeonato 197555
largo 197548
тя@@ 197542
Form 197521
ト 197492
gewählt 197462
memory 197455
tỉnh 197450
AG 197445
Rum@@ 197431
agli 197425
iar 197413
reci@@ 197349
白@@ 197312
stal 197310
10,@@ 197308
1980s 197244
presente 197232
Cour@@ 197210
toc@@ 197204
spot 197185
udi@@ 197181
ط 197181
рин@@ 197147
će 197139
井 197139
לי 197110
60@@ 197109
ให้ 197091
missed 197088
lied 197084
Gebiet 197055
recognized 197046
gall@@ 196995
ები 196985
Lincoln 196947
oltre 196947
atory 196929
Islands 196901
brown 196900
Patrick 196891
ред@@ 196786
ahead 196784
ower 196752
están 196731
alism 196730
kę 196701
1867 196690
位置 196670
gel 196667
zan@@ 196650
bang 196645
ń 196641
colum@@ 196622
ogen 196605
真@@ 196605
proposed 196604
φ@@ 196569
ך 196562
border 196544
gouvernement 196539
бал@@ 196538
ում 196522
substan@@ 196518
доро@@ 196517
serious 196501
перед@@ 196461
graduated 196449
anja 196436
geben 196357
cial 196337
ラー 196334
pole 196333
хи 196299
Cape 196288
ible 196288
eber@@ 196278
110 196253
dale 196249
Div@@ 196235
ného 196203
участие 196193
females 196183
город 196171
ゼ@@ 196162
se-@@ 196116
две 196088
lebih 196042
By@@ 196024
sap@@ 196019
vice 196000
warm 195979
boat 195965
ора 195956
honor@@ 195947
ecz@@ 195946
ซึ่ง 195937
ancien 195930
quest@@ 195896
leri 195843
12-@@ 195838
XVII 195827
vall@@ 195821
Desde 195804
arding 195795
opo@@ 195777
Quebrada 195755
کند 195741
раз 195711
アル@@ 195708
پر 195695
سر@@ 195682
encias 195664
iles 195660
ким 195625
그 195621
反@@ 195596
industrial 195595
gare 195575
以上 195575
finish 195574
teurs 195572
frequ@@ 195561
suspen@@ 195554
サン@@ 195554
Had@@ 195506
inju@@ 195436
ゲ@@ 195435
ū 195433
ниях 195408
rou 195396
Cant@@ 195389
ª 195353
извест@@ 195348
zaj@@ 195346
185@@ 195341
χ@@ 195332
décembre 195329
fem@@ 195303
شهر 195268
Oregon 195252
naselju 195242
historical 195240
気 195240
ής 195209
AL@@ 195143
алась 195143
eil 195138
ilk 195102
ston 195020
crew 195017
пор@@ 194999
ى 194995
Stockholm 194925
нич@@ 194899
послед@@ 194888
twe@@ 194871
bling 194854
wd 194854
levels 194842
нова 194824
critic@@ 194794
asz@@ 194787
Dur@@ 194768
jug@@ 194755
imento 194710
host 194664
ющих 194661
Congo 194650
restaur@@ 194645
choice 194635
восто@@ 194629
も@@ 194615
parish 194570
shoul@@ 194567
空@@ 194543
samen 194537
問題 194529
bili 194468
centrale 194451
diciembre 194436
ète 194394
politician 194388
function 194372
sni@@ 194369
Dist@@ 194339
ней@@ 194325
walking 194318
Democratic 194311
品 194273
پی@@ 194272
Will@@ 194269
skom 194260
apart@@ 194254
map@@ 194246
рей@@ 194239
concent@@ 194233
nisse 194233
contest@@ 194230
08 194220
Lé@@ 194194
high-@@ 194185
eken 194166
ü 194162
M.@@ 194146
tätig 194117
재@@ 194105
thị 194102
35@@ 194089
たち 194074
这 194069
Unternehmen 194056
Sup@@ 194034
seri@@ 194025
usz@@ 194011
tro 193979
Hi@@ 193952
seems 193934
losing 193933
rö@@ 193926
wobei 193925
別 193921
постав@@ 193917
admit@@ 193910
аб@@ 193905
virtu@@ 193891
zas@@ 193888
дра@@ 193881
艦 193846
lying 193828
הס@@ 193812
остав@@ 193808
Kirch@@ 193807
gegründet 193801
ント 193801
specific@@ 193778
tienen 193778
政 193773
offer@@ 193771
eko 193747
percent 193744
kde 193715
jaren 193700
needs 193694
Cambridge 193679
남@@ 193659
結 193650
pressure 193634
oja 193590
Frau 193547
Tem@@ 193484
quality 193478
brand 193476
Stadium 193460
hod@@ 193457
vod@@ 193427
broad@@ 193382
constructed 193317
prendre 193301
cky 193287
Diptera 193282
Je 193272
semi-@@ 193254
fill 193240
wra@@ 193223
Indiana 193221
ader 193199
erfolgte 193199
madre 193193
Mic@@ 193118
channel 193103
находится 193092
שה 193051
ה-@@ 193043
products 193020
Amt 193016
важ@@ 193004
flight 193002
Kabukiran 193001
ù 192982
встре@@ 192966
Both 192939
door@@ 192933
ган 192858
ße 192840
ising 192745
ization 192743
1868 192737
نفر 192737
avril 192735
screen 192718
mint 192716
pent@@ 192709
цу 192657
lose 192656
вместе 192628
四@@ 192606
vad@@ 192578
鉄道 192557
Christ@@ 192556
Stone 192552
Rap@@ 192531
še 192528
gol 192476
Rin@@ 192464
numero 192454
proprio 192454
R-@@ 192430
stellt 192428
tera 192408
recently 192387
aten@@ 192385
歳 192372
permit@@ 192347
производ@@ 192337
finales 192321
ப@@ 192321
pression 192298
Victor 192273
1875 192249
続 192243
C.@@ 192220
\/ 192211
icamente 192190
kalibonan 192174
IUCN 192121
tall 192108
кам 192069
正 192042
Carlo 192010
owania 191985
Long@@ 191964
sü@@ 191948
iji 191941
لی@@ 191939
she@@ 191927
ellen@@ 191889
bland 191875
casi 191874
stor 191859
urban@@ 191835
tenia 191824
chỉ 191734
εν@@ 191730
opp 191714
armée 191699
thé@@ 191699
rej@@ 191690
призна@@ 191673
Phil@@ 191657
ի 191644
efforts 191632
grund@@ 191620
ship@@ 191617
dus 191615
doit 191614
180 191592
install@@ 191590
XV 191561
otro 191558
twice 191553
ák 191540
マン 191529
город@@ 191524
août 191518
리 191501
発 191500
lord 191497
loved 191458
θ@@ 191449
implement@@ 191397
enci@@ 191384
việc 191325
מע@@ 191287
її 191279
competit@@ 191267
1866 191248
tim 191245
highly 191228
Kansas 191227
versions 191191
Naselje 191171
/@@ 191137
Patri@@ 191119
orde 191108
作@@ 191102
Middle 191099
近@@ 191085
Malaysia 191046
ヴァ@@ 191028
quel 191026
Π@@ 190996
issued 190995
zent@@ 190979
gives 190974
revealed 190970
vas 190938
12.@@ 190919
machine 190903
Hotel 190859
Lou@@ 190854
橋 190810
кур@@ 190780
pist@@ 190760
æ@@ 190760
1500 190750
visible 190736
eaux 190719
kad 190710
PS@@ 190697
05 190689
bagian 190664
эн@@ 190642
período 190630
ых 190623
ದ 190612
mentioned 190610
окру@@ 190604
ioni 190585
altro 190581
tendo 190568
metres 190559
echter 190516
singles 190493
newspaper 190492
去 190477
FIFA 190470
04 190456
transfer@@ 190434
1850 190427
spéci@@ 190412
papel 190400
dae 190385
chu@@ 190368
rom 190367
пара@@ 190319
大会 190304
coast 190238
Vier@@ 190233
ジェ@@ 190206
関 190205
sexu@@ 190189
região 190097
rying 190096
船 190096
khác 190048
corps 190044
Ec@@ 190025
Mario 190007
slow 189998
quốc 189966
shad@@ 189961
かけ 189957
И 189943
gab@@ 189916
1873 189900
мой 189819
sost@@ 189814
usta 189767
pier@@ 189745
emen 189742
29. 189738
Tun@@ 189736
事件 189724
тий 189707
ningar 189604
Cul@@ 189596
aded 189590
Ernst 189573
owski 189566
cet 189558
基@@ 189532
oda 189508
част@@ 189471
már 189460
stan 189455
다 189430
ament@@ 189415
Би@@ 189385
stad@@ 189384
身 189384
ink@@ 189357
Dro@@ 189354
يت@@ 189351
Ot@@ 189336
段 189325
وقد 189269
vamp@@ 189259
過@@ 189256
uen 189223
用い 189196
шо@@ 189181
views 189156
jac@@ 189120
partner@@ 189109
phase 189103
spir@@ 189095
oud 189069
rang@@ 189058
gmina 189051
ald 189037
1872 189036
uy@@ 189019
evo 189017
preci@@ 189009
Master 189008
prov@@ 189005
sión 188992
1970s 188896
tam 188867
siguiente 188843
risk 188830
ита@@ 188812
bez 188807
bog@@ 188800
nier 188799
ać 188763
ไป 188756
тер 188740
動@@ 188699
歌 188683
Social 188655
била 188643
Roman@@ 188626
1877 188616
Stand 188606
актив@@ 188594
однако 188587
100@@ 188578
堂 188554
median 188536
ало@@ 188533
destroyed 188532
luego 188507
may@@ 188502
Douglas 188496
області 188492
abol@@ 188465
supp@@ 188447
dispar@@ 188405
ён@@ 188394
רת 188382
мм 188372
вид 188364
så@@ 188337
viele 188327
pol 188326
chiến 188307
vio 188305
कर 188303
rise 188282
ს 188271
officially 188208
елей 188186
Α@@ 188160
concert 188149
Однако 188134
quattro 188106
však 188097
powerful 188091
ноября 188068
purpose 188048
ایک 188035
Om@@ 188028
AM 187984
ер 187976
Channel 187971
市@@ 187960
ут@@ 187952
sir 187941
niej 187927
וא@@ 187912
Duke 187870
onne 187869
gy 187852
Mitte 187836
tics 187826
Под@@ 187818
Port@@ 187807
chil@@ 187787
hard@@ 187776
Гу@@ 187732
André 187668
ато@@ 187668
thế 187661
פו@@ 187661
9,@@ 187641
ließ 187631
ській 187626
rik@@ 187583
務 187583
eigh@@ 187555
ال 187525
Eric 187519
terror@@ 187517
Miller 187513
perfect 187482
consci@@ 187476
sts 187419
hs 187404
Lungsod 187342
உள 187302
sunt 187286
нам 187285
19th 187279
anes 187271
atri@@ 187257
チーム 187253
tamente 187233
eping 187219
　 187218
namn 187211
jer 187182
dirig@@ 187159
ένα 187128
posed 187121
Мі@@ 187103
finden 187092
ości 187081
necessary 187079
1874 187076
kiu 187074
الخ@@ 187071
ensch@@ 187034
aliment@@ 187029
erade 187000
Ş@@ 186999
Also 186978
കുന 186930
意 186920
fifth 186902
70@@ 186888
Journal 186872
ds@@ 186858
SA 186844
одного 186833
lande 186827
eke 186797
basketball 186755
DE@@ 186754
био 186752
pus 186749
noviembre 186740
ها@@ 186734
1,5 186724
yj@@ 186705
ainda 186691
guard 186651
дар@@ 186615
除 186566
foot@@ 186538
качестве 186489
公 186449
Nachdem 186443
初@@ 186433
平 186378
ím 186367
rer@@ 186362
celebr@@ 186337
ати 186321
Pun@@ 186312
Cham@@ 186287
user 186273
ty-@@ 186270
γ@@ 186244
ني@@ 186229
-- 186188
entemente 186182
hip@@ 186160
History 186154
hof 186146
sed@@ 186132
spra@@ 186132
tened 186114
relations 186051
IX 186008
fellow 185998
Band@@ 185991
Philadelphia 185989
haber 185984
tima 185984
Thor@@ 185972
στις 185966
promoted 185935
הכ@@ 185935
гал@@ 185893
baz@@ 185881
הב@@ 185881
berger 185837
위@@ 185835
residents 185789
тия 185752
anterior 185746
español 185738
Network 185733
М 185701
primarily 185678
務め 185674
Hof@@ 185664
ится 185664
cùng 185623
dua 185616
Sierra 185520
nato 185517
universit@@ 185467
pass@@ 185463
20th 185461
nici 185457
mou@@ 185442
сам 185417
最@@ 185330
gruppe 185318
mana 185315
ateur 185311
Est 185293
aid@@ 185285
expl@@ 185279
선@@ 185264
vorg@@ 185253
olla 185251
dins 185238
Cri@@ 185220
core 185216
trag@@ 185211
Tet@@ 185186
já 185174
poz@@ 185160
出場 185124
Isl@@ 185112
estadounidense 185110
alle@@ 185103
polo 185076
officers 185067
cinq 185049
a.@@ 185033
הייתה 185020
tea 184990
website 184977
光@@ 184962
XIII 184920
accepted 184912
mountain 184903
осіб 184902
رات 184884
மற 184884
ép@@ 184857
Ful@@ 184794
knowledge 184784
buried 184774
Sports 184771
Cav@@ 184770
actu@@ 184757
ités 184751
vely 184736
unn@@ 184735
rab@@ 184723
folge 184689
たり 184679
VIII 184671
effet 184646
которого 184630
чения 184620
שו@@ 184617
包括 184604
Fab@@ 184535
visit 184528
Zweiten 184470
타@@ 184454
社会 184444
Bridge 184418
ss 184415
יותר 184398
Zah@@ 184389
強 184388
Hamilton 184368
Asian 184358
wat@@ 184358
renov@@ 184344
Vietnam 184322
Jac@@ 184311
según 184288
Mr. 184280
tutto 184280
900 184265
Over@@ 184230
zituzten 184226
supposed 184190
再 184173
הצ@@ 184169
世紀 184106
initial 184094
ジャ@@ 184072
remain 184046
cep@@ 184016
") 184006
rand@@ 183992
מי 183954
puesto 183935
law@@ 183931
abitanti 183928
副 183914
MS 183909
Fle@@ 183899
historic 183897
ального 183896
сп@@ 183895
chaque 183889
قد 183886
ické 183807
দ 183798
simul@@ 183791
Гор@@ 183760
assistant 183751
בת@@ 183725
gon@@ 183688
Scottish 183669
koh@@ 183669
E-@@ 183643
ян 183579
cias 183563
выпу@@ 183547
130 183536
yards 183503
coordin@@ 183492
save 183484
דו 183462
ција 183460
流@@ 183453
слав@@ 183448
elec@@ 183416
Top@@ 183409
ドイツ 183398
Norden 183376
Main 183363
musste 183333
atom@@ 183327
ích 183319
št@@ 183286
Direc@@ 183250
Township 183240
Cle@@ 183207
activity 183186
그@@ 183175
seem 183157
mest 183151
aastal 183135
legisl@@ 183116
etes 183113
breath@@ 183105
K-@@ 183102
SR 183099
bron@@ 183072
Lip@@ 183070
stati 183054
reprezent@@ 183045
-de-@@ 183044
MA 183027
李 183026
ellement 183015
సమీప 182979
burg@@ 182964
έ@@ 182962
じ@@ 182946
ئ@@ 182941
Sac@@ 182935
National@@ 182926
designated 182861
hu 182861
kaz@@ 182860
diz@@ 182845
alten 182815
さらに 182781
tarafından 182769
чен 182757
ள 182745
всех 182735
u. 182700
كل 182676
mellom 182675
установ@@ 182666
వి@@ 182614
07 182598
principales 182587
owner 182537
dá@@ 182496
jazz 182495
humans 182492
agreement 182486
bronze 182458
考え 182403
nete 182401
Haw@@ 182380
cat 182363
коро@@ 182359
m.in. 182323
aman 182295
พ.ศ. 182275
lij@@ 182274
Atlantic 182265
現@@ 182254
Dub@@ 182204
shit 182198
lawis 182172
súa 182170
adel@@ 182152
Gy@@ 182145
Dan 182117
anten 182113
argu@@ 182096
wechselte 182092
persona 182079
تا@@ 182050
Polit@@ 182049
她 182035
以降 182012
1869 182010
период 181992
m-@@ 181979
اب@@ 181974
Howard 181971
prac@@ 181954
growth 181942
Zw@@ 181906
ικά 181881
all-@@ 181876
Cin@@ 181805
登場 181763
Forest 181751
eza 181738
versión 181733
Press 181722
suc@@ 181679
torneo 181662
invent@@ 181653
državi 181633
зу 181605
更 181592
taas 181591
sors 181577
D' 181549
vive 181524
発表 181517
бил 181512
nec@@ 181500
kultur@@ 181490
ald@@ 181475
elections 181454
vr@@ 181413
Nem@@ 181363
wald 181359
distinc@@ 181325
specie 181325
sas 181313
canción 181282
Peru 181276
fans 181272
פי 181260
vir 181219
males 181213
మరియు 181205
февраля 181196
福@@ 181192
absor@@ 181167
Gunung 181149
promis@@ 181136
Like 181119
automat@@ 181119
donne 181109
iler 181098
מס@@ 181084
favor 181066
amar@@ 181063
hul@@ 181060
periode 181051
קר@@ 181043
kleine 181015
書@@ 181005
Việt 180965
tech@@ 180953
шт@@ 180951
suggested 180950
flan@@ 180947
geboren 180929
Nella 180908
kak@@ 180902
genom 180892
среди 180859
谷 180817
11.@@ 180812
kanssa 180806
bü@@ 180742
And@@ 180715
Leb@@ 180710
stim@@ 180699
connected 180696
owo 180693
jordbruksmark 180618
ску 180587
ush 180581
роль 180562
Over 180557
гру@@ 180530
国家 180530
jours 180510
ból 180508
nose 180497
rain 180497
tener 180489
двух 180482
appearances 180481
信 180451
kro@@ 180436
げ 180431
emit@@ 180409
카@@ 180403
門 180367
단@@ 180350
easily 180349
flere 180338
alguns 180327
taught 180302
fought 180266
jon 180240
git@@ 180238
notes 180204
fast@@ 180189
lad 180189
Mal 180174
Rose 180159
friend@@ 180157
gate 180153
lap 180140
bry@@ 180137
Highway 180119
bic@@ 180107
рі 180091
rules 180059
invece 180055
Justice 180054
forest 180046
Hamburg 180030
Queensland 180016
Bis 180004
última 179992
pressed 179986
Einwohner 179974
Lav@@ 179971
eerde 179933
Bry@@ 179923
ностью 179915
朝 179892
osta 179890
gebaut 179863
potential 179811
ither 179807
quit@@ 179803
transferred 179776
ぶ 179771
Sing@@ 179760
09 179756
Gew@@ 179754
assigned 179751
gestellt 179730
составляет 179730
X-@@ 179729
явля@@ 179728
kah@@ 179723
土@@ 179715
enn 179666
ω@@ 179648
位於 179624
Anderson 179617
udes 179617
Air@@ 179604
ہ 179596
proceni 179595
sechs 179592
titled 179590
dade 179568
IM@@ 179558
eet 179510
evol@@ 179507
Book 179491
направ@@ 179479
escape 179473
美 179468
mec@@ 179466
نیز 179460
tells 179428
review 179425
yl 179354
pool 179350
encies 179346
sedan 179320
còn 179302
例 179284
approach 179275
Teil@@ 179260
hizo 179243
Kro@@ 179210
block 179208
distribution 179200
ardo 179191
Sas@@ 179178
Oscar 179153
מח@@ 179148
Et@@ 179127
清@@ 179122
경@@ 179091
تق@@ 179086
валь@@ 179078
試合 179068
CC 179047
義@@ 179045
okol@@ 179032
И. 178975
upper 178968
elor 178964
üh@@ 178952
bottom 178932
含 178897
période 178856
一部 178834
stark 178829
pł@@ 178819
Best@@ 178818
cidae 178817
workers 178816
heit@@ 178814
време 178807
Landkreis 178790
会@@ 178773
Sri 178771
ತ@@ 178742
trova 178695
র 178691
clin@@ 178688
trust 178686
américain 178673
demon@@ 178668
Beh@@ 178656
resist@@ 178644
brothers 178640
городе 178629
geführt 178615
Lap@@ 178609
sine 178605
inning 178603
び 178595
kiel 178591
premiers 178586
sinh 178585
restor@@ 178583
Head 178577
articles 178553
ří@@ 178476
sang@@ 178467
ని@@ 178419
яр@@ 178390
алі@@ 178384
Shi@@ 178358
csak 178349
beide 178323
advan@@ 178277
命 178275
مج@@ 178274
має 178258
Stand@@ 178252
21@@ 178241
ič@@ 178215
kus 178209
seis 178200
tok 178184
това 178183
ało 178166
צ 178164
hers 178148
yen 178148
Nations 178134
muerte 178107
реш@@ 178062
二@@ 178056
وی@@ 178043
с-@@ 178033
Reb@@ 178013
అ@@ 178013
éc@@ 177977
istä 177975
الد@@ 177942
клуб 177932
appo@@ 177921
figures 177914
関係 177905
också 177897
каз@@ 177888
кого 177864
обла@@ 177825
192@@ 177822
anan 177819
acja 177818
esses 177817
Rh@@ 177813
Log@@ 177803
ί@@ 177794
sian 177788
کار@@ 177788
harmon@@ 177770
tijd 177756
calcul@@ 177753
神 177744
修@@ 177738
opposition 177732
aq@@ 177727
Wisconsin 177702
த@@ 177699
toujours 177675
Tokyo 177662
bor 177659
р. 177620
aju 177618
dut@@ 177586
post-@@ 177579
long-@@ 177571
elas 177570
vit 177569
osos 177551
ться 177547
på@@ 177543
mik@@ 177530
cross 177529
ffen 177516
storia 177511
campionato 177506
sous-@@ 177459
tik 177454
usly 177452
Final 177438
Memorial 177425
která 177414
לע@@ 177413
Microsoft 177403
Afrika 177397
尼@@ 177394
Ia 177375
Beau@@ 177368
conqu@@ 177367
Za 177345
Ast@@ 177341
übernahm 177332
май@@ 177332
weiteren 177330
conocido 177325
cá@@ 177319
ग 177295
лей@@ 177282
Mut@@ 177266
rank 177262
anal@@ 177256
ろ 177233
校 177231
Teh@@ 177230
нього 177225
영@@ 177160
世@@ 177140
erreichte 177089
שם 177079
eja 177066
prominent 177041
aise 177028
ина 177026
itt 177017
Mam@@ 176998
ズ@@ 176971
影響 176965
ords 176962
meister 176940
estava 176930
statist@@ 176918
denne 176911
altra 176908
stock 176896
勝 176893
and-@@ 176859
Cross 176815
нем 176800
вет@@ 176760
week@@ 176755
liqu@@ 176748
гро@@ 176746
esh 176745
num 176744
König 176736
03 176734
illas 176727
annen 176717
emi@@ 176712
hov@@ 176704
yh@@ 176692
stehen 176688
composit@@ 176677
ын 176675
strugg@@ 176643
unity 176638
majd 176634
Kit@@ 176623
asure 176573
affili@@ 176565
patri@@ 176533
product 176522
environ@@ 176485
這@@ 176483
break@@ 176480
teacher 176478
nur@@ 176474
Internacional 176467
varias 176467
zes@@ 176453
jä@@ 176451
명@@ 176440
ката 176428
bola 176423
welche 176422
イン 176420
rale 176407
Fair@@ 176403
rôle 176377
好 176377
bekend 176374
L-@@ 176353
ref@@ 176349
野@@ 176339
Cou@@ 176331
elly 176327
gu 176313
Vater 176293
strength 176290
кол@@ 176237
Gold@@ 176211
follows 176207
сты@@ 176201
blir 176161
ству 176153
06 176147
stal@@ 176133
orders 176110
нения 176109
Din@@ 176106
zuten 176055
Power 176051
代@@ 176028
iner 176001
fusion 175994
scale 175990
resto 175984
scholar@@ 175975
ップ 175967
Nah@@ 175956
aching 175952
daw@@ 175952
nummer 175952
animals 175948
protect 175937
образ@@ 175937
zad@@ 175929
costa 175906
ರ@@ 175894
jälkeen 175865
плат@@ 175842
nivel 175834
спа@@ 175820
priv@@ 175805
astronom@@ 175803
किया 175788
mark@@ 175784
Dru@@ 175775
дз@@ 175775
sevent@@ 175762
sight 175741
concep@@ 175731
proc@@ 175715
ай@@ 175711
波@@ 175671
anden 175667
atos 175664
وفي 175662
ség 175650
XII 175649
Brig@@ 175637
uda 175634
eses 175614
Junior 175612
effects 175589
euse 175571
chart 175558
Clark 175549
בר 175536
одним 175533
ның 175525
jeweils 175522
XIV 175521
rating 175515
io@@ 175513
교@@ 175494
serves 175483
था 175477
ins@@ 175472
hockey 175458
Stat@@ 175452
ко-@@ 175424
eka 175412
表 175406
ligen 175370
Bom@@ 175368
Hitler 175301
candidate 175296
Ng@@ 175284
gil@@ 175272
cis 175264
Kentucky 175245
telling 175242
gev@@ 175234
ші 175220
privat@@ 175211
rep@@ 175210
istic 175179
recht 175156
retro@@ 175120
Marine 175100
の@@ 175099
frå 175086
mixed 175080
جمعیت 175065
växtart 175042
五 175040
hơn 175027
産 175005
organized 174970
modi@@ 174949
sero 174946
Casa 174940
projects 174937
экономи@@ 174930
US-@@ 174926
remember@@ 174926
한@@ 174912
grave 174909
ஸ 174900
pieces 174891
1960s 174890
effici@@ 174883
elabor@@ 174880
Alan 174879
наз@@ 174863
江 174810
Фран@@ 174801
Кор@@ 174800
baj@@ 174794
none 174717
new@@ 174715
eless 174713
divis@@ 174691
cup 174685
Khan 174651
کو 174640
mission@@ 174639
1990s 174635
ро 174628
wis@@ 174581
Spi@@ 174573
Walker 174565
villages 174529
travel 174498
學@@ 174476
thi@@ 174465
unable 174414
grote 174412
tom 174402
ně@@ 174379
Tul@@ 174374
grupos 174371
撃 174362
miento 174361
maja 174346
Сер@@ 174339
oner 174328
deur 174323
agi 174308
combat@@ 174302
febrero 174284
Gebäude 174274
ско-@@ 174264
déc@@ 174260
ション 174253
لم 174236
laid 174228
部@@ 174228
rev@@ 174212
urt 174211
Wall@@ 174204
ations@@ 174184
90@@ 174172
offers 174160
pio 174151
пры@@ 174138
település 174106
muito 174094
italiana 174080
Development 174073
podczas 174069
Jesus 174066
bij@@ 174046
occurred 174037
sina 174033
NS@@ 174012
stif@@ 174011
фа 174001
레@@ 173999
ierung 173987
rano 173973
Green@@ 173945
Hall@@ 173937
nico 173911
189@@ 173905
1859 173902
sively 173902
Micro@@ 173891
フランス 173890
ț@@ 173878
teeth 173871
وج@@ 173868
horse 173842
tradu@@ 173817
Jes@@ 173812
edificio 173800
ین 173795
Born 173775
setzte 173751
цію 173748
mobil@@ 173747
Staat@@ 173736
ű 173728
Jed@@ 173726
Origin@@ 173726
название 173704
نسمة 173695
Universit@@ 173663
passing 173643
Cost@@ 173636
escap@@ 173610
dès 173607
נות 173604
iter@@ 173587
Governor 173586
possibil@@ 173586
yz@@ 173578
تش@@ 173569
кин@@ 173567
eling 173566
列 173552
chant 173492
graduate 173467
Bit@@ 173460
famili@@ 173443
Walay 173434
aked 173430
בש@@ 173428
быть 173426
λ@@ 173425
norra 173409
interpret@@ 173407
Chor@@ 173400
zog 173398
Theater 173386
лек@@ 173379
ską 173373
us-@@ 173371
十 173369
amp 173362
sver@@ 173355
Gas@@ 173347
ゲーム 173333
dock 173327
rit 173298
nello 173293
BA 173285
cian 173278
ين@@ 173249
oca 173227
wic@@ 173206
wier@@ 173201
verwendet 173197
Blu@@ 173191
etxek 173178
alista 173166
바@@ 173159
lung@@ 173124
ствен@@ 173121
innov@@ 173104
Bereich 173078
Black@@ 173066
estilo 173060
decre@@ 173050
محمد 173045
ச 173042
aul@@ 173040
stream 173035
scor@@ 173019
sert 173015
ές 173015
doctor 173010
him@@ 173010
prote@@ 172997
Mir@@ 172988
Cru@@ 172986
kim@@ 172975
spel@@ 172958
për 172942
pou@@ 172929
Allen 172912
Τ@@ 172883
לש@@ 172883
ální 172870
firm@@ 172850
journal 172847
松@@ 172826
zz@@ 172823
Haus 172777
zij 172761
huge 172757
Canal 172716
מנ@@ 172703
dige 172684
mest@@ 172642
excit@@ 172621
Pul@@ 172616
dry 172616
бе 172595
taa 172583
гово@@ 172568
яка 172535
leaders 172533
31. 172488
Stati 172476
Cad@@ 172453
após 172453
کو@@ 172451
kup@@ 172446
نا 172446
drie 172442
dell 172438
リーグ 172427
Gun@@ 172417
シャ@@ 172400
Fern@@ 172398
género 172393
жена 172393
onu 172384
administ@@ 172320
gene 172308
ول 172308
questi 172306
toute 172296
utan 172295
Leben 172275
owane 172253
độ 172247
центр 172246
î 172229
projet 172215
eel 172205
шко@@ 172183
22@@ 172177
batter@@ 172177
dende 172168
nic 172168
extra 172152
commonly 172150
ous@@ 172146
observ@@ 172145
itos 172087
波 172087
管 172085
bodies 172080
onal 172057
fabric@@ 172043
Lem@@ 172013
pam@@ 172003
nueva 171996
次@@ 171957
вз@@ 171946
owano 171940
sh 171940
ّ@@ 171916
üt@@ 171912
bought 171907
defeat 171880
acces@@ 171872
род 171853
себя 171789
мин@@ 171788
Dies 171787
owi 171779
rugby 171757
ток 171751
dones 171748
raum 171745
mano 171730
að 171726
meist 171700
-a 171697
selec@@ 171696
settembre 171696
études 171634
دا 171622
вается 171619
해 171608
начале 171599
zet@@ 171586
platz 171578
krit@@ 171553
chiesa 171542
peuvent 171533
работал 171532
nieuwe 171517
drawn 171506
Prozent 171488
チャ@@ 171485
عنوان 171475
też 171459
女性 171452
interes@@ 171430
andi 171426
patron@@ 171413
36@@ 171404
округу 171392
younger 171382
tog 171359
naz@@ 171355
tudi 171331
internationale 171328
機@@ 171310
ತ 171299
sum 171277
pull 171276
roll 171261
青@@ 171256
stycznia 171248
aar 171218
уче@@ 171216
erhalten 171210
ampli@@ 171177
Koh@@ 171175
Straße 171147
posizione 171137
yb@@ 171132
Sé@@ 171100
米@@ 171076
unk 171072
insekto 171068
sre@@ 171047
sper@@ 171027
sólo 171026
Sul 171005
captured 170992
молод@@ 170983
batt@@ 170950
vez@@ 170950
maggio 170946
familiar 170943
igt 170930
цией 170924
этой 170916
мно@@ 170913
södra 170909
ట@@ 170880
damage 170851
seorang 170851
global 170845
에는 170834
happen 170829
therefore 170824
Sep@@ 170815
refused 170814
打 170814
système 170793
Mann 170766
rim@@ 170749
tua 170744
daha 170736
ként 170724
Republican 170696
sell 170695
bag 170672
web@@ 170668
данным 170654
Melbourne 170632
zoals 170620
amin@@ 170614
Tw@@ 170605
alongside 170588
carri@@ 170584
мод@@ 170578
స@@ 170569
equipment 170566
nej@@ 170543
や@@ 170513
田@@ 170500
호@@ 170490
use@@ 170476
sut@@ 170462
pu 170430
declared 170400
Bour@@ 170393
Dabei 170393
числе 170385
issä 170377
вался 170376
treatment 170341
Ev@@ 170339
objec@@ 170338
keh@@ 170298
sử 170296
atum 170274
osti 170251
hts 170229
seperti 170209
agan 170205
нови@@ 170181
Населення 170164
molt 170144
ciutat 170139
aç@@ 170135
jeden 170130
管理 170110
enberg 170107
zio 170064
wants 170047
Об@@ 170021
取り@@ 170017
grund 170009
포@@ 169998
focused 169975
glas@@ 169969
itor 169960
времени 169957
onda 169946
ը 169936
kepada 169905
Olympic 169903
Regiment 169895
14,@@ 169881
participated 169848
dedicated 169845
renamed 169844
rappresent@@ 169828
Lub@@ 169796
父 169780
Water@@ 169774
account 169766
gained 169749
œuvre 169742
gj@@ 169707
ial 169663
eru 169647
fő@@ 169647
jack 169631
мон@@ 169627
ند 169624
pris 169579
ování 169557
هر 169554
Pav@@ 169535
condado 169519
تی 169505
オー@@ 169495
Mannschaft 169482
doors 169456
birth 169425
ulus 169418
është 169384
хра@@ 169373
miss 169367
Eu@@ 169365
capacity 169271
Dob@@ 169249
leid@@ 169241
есть 169233
مار@@ 169165
element@@ 169122
tural 169116
לק@@ 169064
Anthony 169059
Kad@@ 169033
Fr@@ 169020
library 169015
sales 169006
ider 168999
trabajo 168996
Бел@@ 168993
wings 168982
thứ 168967
ní@@ 168956
нів 168950
saveznoj 168926
チ 168924
inom 168920
annya 168915
listen 168904
Ook 168890
職 168890
Cla@@ 168881
mica 168875
記録 168866
path 168861
сты 168854
khu 168850
فا@@ 168846
And 168839
можно 168782
Ele 168773
gift 168762
architecture 168758
mia 168741
orden@@ 168735
Lawrence 168727
cut@@ 168722
生活 168710
Кри@@ 168696
secu@@ 168671
joint 168665
بوده 168659
ఆ@@ 168655
מים 168649
מצ@@ 168644
correspond@@ 168638
fields 168629
Net@@ 168621
curi@@ 168619
tax@@ 168608
국@@ 168606
split 168559
來 168546
ης 168528
ји 168521
oeste 168520
안@@ 168513
Loma 168498
Alex 168494
Ray 168489
ultimo 168467
Kul@@ 168462
bourg 168444
power@@ 168418
institu@@ 168417
planta 168401
marked 168399
teh@@ 168396
են 168391
間@@ 168372
Bernard 168370
11,@@ 168365
该 168358
該@@ 168326
commerci@@ 168322
мир@@ 168283
eix 168273
עי@@ 168271
rival@@ 168238
דות 168221
fic 168202
змі@@ 168201
拉 168194
指 168164
определ@@ 168161
DS 168157
età 168147
iss@@ 168142
itar@@ 168137
Quốc 168122
prin@@ 168119
дин@@ 168114
ана 168112
habitatges 168102
гли@@ 168095
рус@@ 168064
vz@@ 168041
ير 168040
Ple@@ 168033
נו 168033
לפ@@ 168015
ників 167996
driver 167994
ням 167981
コ 167954
inoltre 167913
augen 167887
Management 167871
propos@@ 167862
양@@ 167835
situada 167829
אשר 167824
depar@@ 167823
stein@@ 167822
და@@ 167818
content 167815
youth 167811
种 167774
(" 167772
政@@ 167770
פה 167749
cara 167746
pubblicato 167740
folk 167717
présente 167715
Era 167697
iller 167684
cler@@ 167673
finger 167673
prze@@ 167672
חה 167654
Par 167648
Ath@@ 167631
160 167586
IT@@ 167500
technique 167496
Moore 167492
лено 167465
shru@@ 167460
verschiedenen 167453
cem@@ 167431
成立 167416
occasion 167409
에@@ 167407
ены 167389
Gan@@ 167388
име@@ 167359
Trung 167357
문@@ 167331
smel@@ 167328
colon@@ 167323
提供 167315
skil@@ 167305
推@@ 167289
eland 167280
fiction 167261
yon 167235
jas@@ 167212
letech 167198
డ 167189
suff@@ 167168
dau@@ 167160
angle 167158
territoire 167157
반@@ 167154
ო 167151
gilt 167142
ща 167125
plants 167122
gle@@ 167117
การ@@ 167116
kirche 167108
cycle 167055
ının 167045
台@@ 167042
porque 167037
haz@@ 167020
dien 167018
äch@@ 167009
Из@@ 166991
tennis 166983
Dy@@ 166945
ался 166945
aría 166929
ーム 166918
Ин@@ 166910
ός 166907
brief@@ 166906
start@@ 166906
бу 166895
nod@@ 166882
способ@@ 166881
setting 166860
Jr 166857
cular 166853
fjärilsart 166836
ела 166804
發 166783
вало 166782
enem@@ 166780
société 166738
ους 166737
集@@ 166726
ände 166715
östra 166705
Partido 166694
allowing 166692
platform 166676
mah@@ 166659
giugno 166646
aty 166631
אל@@ 166621
mere 166604
box@@ 166601
bene@@ 166579
insgesamt 166562
自己 166558
inta 166536
bile 166527
Pé@@ 166525
стов 166525
mayoría 166522
Fall 166521
continues 166495
Eg@@ 166490
одно@@ 166488
yp@@ 166482
城@@ 166477
Iowa 166472
consult@@ 166468
hole 166450
š 166447
faced 166438
最後 166420
activ@@ 166406
ында 166394
Rub@@ 166376
ė@@ 166376
Business 166353
-h@@ 166322
mando 166315
formerly 166314
mass 166293
Ett 166291
huyện 166263
entstand 166262
avi 166239
haj@@ 166198
어 166194
тел@@ 166183
המו@@ 166173
гом 166168
incorporated 166154
ës 166146
efs 166140
emat@@ 166131
حتى 166122
לח@@ 166112
שים 166100
ital 166097
סט@@ 166079
ар 166072
луч@@ 166072
conducted 166069
umb@@ 166056
raz 166051
inal 166050
Fach@@ 166048
Liv@@ 166016
ték 166016
Hermann 166005
Rav@@ 166001
Before 165986
भी 165983
cot@@ 165977
alte 165959
3000 165957
corpo 165957
jor@@ 165952
nek@@ 165936
xes 165935
Stad@@ 165925
شی@@ 165925
J.@@ 165924
Deutsche 165923
ğ@@ 165903
Dort 165901
sail@@ 165895
184@@ 165894
só 165893
branch 165888
ど@@ 165883
AD 165880
château 165879
ref 165878
compli@@ 165873
oo 165862
Mann@@ 165820
సౌకర 165813
200@@ 165812
Gordon 165795
nhân 165783
quement 165726
surrounding 165720
tora 165712
winter 165703
Lima 165696
vilket 165683
всего 165681
moderne 165659
lah@@ 165654
Cir@@ 165620
hist@@ 165612
وق@@ 165609
illon 165582
игро@@ 165582
dent 165580
soft@@ 165566
шки 165541
Domin@@ 165540
比 165535
aru 165523
ツ 165510
ç 165495
performances 165486
Sci@@ 165480
heid 165395
Ferdinand 165393
Alabama 165392
Oc@@ 165391
zato 165386
tên 165372
یکی 165366
engag@@ 165357
västra 165307
lah 165303
bone 165294
halt 165290
자 165279
ера@@ 165273
ध 165250
여@@ 165245
料 165227
ebe 165225
Health 165219
dazu 165210
crime 165206
toutes 165196
meses 165194
internacional 165171
alg@@ 165162
所属 165160
construc@@ 165135
ват 165130
нок 165121
經@@ 165114
hed@@ 165106
francesa 165075
León 165062
hemiboreala 165033
tur 165027
ックス 165027
permanent 165017
質 165016
dess 165010
vlinder 164995
מר@@ 164994
ал 164926
schw@@ 164925
stellte 164907
重要 164895
heb@@ 164889
XI 164887
방@@ 164864
định 164845
ء 164841
两 164834
rog@@ 164824
צה 164812
chy 164807
ज 164788
сь@@ 164786
лася 164778
ayan 164762
milli@@ 164760
иться 164747
excep@@ 164745
resi@@ 164745
広@@ 164734
45@@ 164723
compared 164720
02 164716
け@@ 164707
Mexiko 164706
ら@@ 164695
Technology 164690
シリーズ 164679
常@@ 164647
Besch@@ 164645
жизни 164626
רי 164625
ör 164615
Wat@@ 164612
attrac@@ 164592
残 164576
durowan 164575
février 164573
kabugangan 164573
Just@@ 164570
TV@@ 164567
だけ 164564
Insecta 164562
featuring 164560
近 164557
tement 164552
werk@@ 164540
rigen 164537
suffered 164530
silence 164523
Each 164518
Cher@@ 164509
DNA 164480
aufgrund 164462
baseball 164441
演@@ 164426
Len@@ 164421
బ 164417
kommt 164406
Secretary 164404
Fun@@ 164399
Чер@@ 164396
eti@@ 164377
AF@@ 164350
бар@@ 164347
moun@@ 164337
tac@@ 164333
conference 164324
revista 164273
recht@@ 164271
owie 164268
ило 164263
üm@@ 164237
selben 164217
winner 164213
بال@@ 164205
ski@@ 164182
ač@@ 164175
AI@@ 164163
widely 164159
gjorde 164151
ड 164143
сли@@ 164137
wah@@ 164135
wave 164126
亦 164109
storm 164101
evening 164083
guitar 164064
армии 164022
ances 164013
Neg@@ 164003
Fir@@ 164002
ава 163989
asan 163982
Senate 163948
rapport 163918
V-@@ 163898
uck 163884
Spar@@ 163857
није 163856
ള 163850
dress 163840
Four 163833
Winter 163827
來@@ 163825
ας 163822
Bau 163807
相 163806
στ@@ 163761
は@@ 163754
peace 163741
trial 163733
令 163706
ины 163695
indo 163689
vùng 163681
Polsce 163678
Family 163657
mode 163654
มา 163653
Вол@@ 163648
reve@@ 163644
territory 163636
ichten 163620
Number 163613
deput@@ 163592
folgender 163564
ься 163555
数@@ 163549
cooper@@ 163522
speaking 163519
Zu@@ 163517
30-@@ 163510
관@@ 163509
schaft@@ 163502
sov@@ 163493
troisième 163492
ników 163487
uf 163470
バー 163466
apro@@ 163460
ген 163457
eiro 163438
Zwe@@ 163434
Tras 163424
recep@@ 163412
ĝis 163407
στα 163400
Gesellschaft 163399
Бар@@ 163377
aat 163373
rach@@ 163373
全国 163360
plane 163355
interview 163350
evolu@@ 163330
Francesco 163321
scher 163320
ź@@ 163301
clothes 163300
syn 163297
connu 163295
cida 163291
et-@@ 163280
קים 163234
fallen 163227
наступ@@ 163220
aller@@ 163213
своего 163190
às 163182
svol@@ 163174
航空 163173
noti@@ 163172
比@@ 163166
ници 163162
search 163159
Bow@@ 163153
géné@@ 163107
adopted 163105
Reser@@ 163097
ικής 163085
saf@@ 163080
Süden 163065
essenti@@ 163065
elő@@ 163063
õ@@ 163063
earth 163051
provincie 163049
real@@ 163046
contempor@@ 163012
enk@@ 162994
hình 162978
scen@@ 162965
derung 162964
キャ@@ 162936
klub 162911
oughts 162907
droit 162839
186@@ 162820
ől 162802
stil@@ 162797
reading 162796
ను 162787
half-@@ 162782
bay@@ 162743
valu@@ 162741
oci@@ 162735
Staats@@ 162730
מות 162650
shor@@ 162647
都市 162635
Pass@@ 162632
bands 162621
சி 162607
sorg@@ 162601
dost@@ 162581
fug@@ 162546
missions 162519
mals 162490
Studios 162489
ajo 162484
rats 162482
الط@@ 162445
jav@@ 162429
она@@ 162408
ять 162394
deu 162381
alidad 162349
走 162349
effec@@ 162335
trains 162312
maz@@ 162299
logo 162297
nombreuses 162282
lidae 162277
ede@@ 162262
enjoy@@ 162251
enpresak 162239
Reino 162196
americano 162181
ಕ@@ 162146
1830 162122
Fu 162119
relief 162089
ën 162086
Hockey 162072
Selon 162065
primi 162049
agre@@ 162035
М. 162030
enze 162029
kör@@ 162026
花@@ 162016
sió 162013
הד@@ 162012
末 162000
ith 161986
港 161983
Library 161981
ride 161941
North@@ 161927
settlement 161919
руковод@@ 161914
typically 161905
八@@ 161838
пен@@ 161815
α@@ 161814
язы@@ 161791
ital@@ 161788
град@@ 161784
inae 161766
цій 161764
rem 161750
moc@@ 161733
тал@@ 161723
Captain 161666
Sag@@ 161641
Flug@@ 161633
音楽 161615
tiques 161611
princip@@ 161608
impact 161595
зер@@ 161582
feh@@ 161565
traffic 161564
каль@@ 161563
đồng 161562
conce@@ 161545
três 161534
público 161531
asteroid 161519
gennaio 161505
тем 161484
tri 161482
lod@@ 161475
ーズ 161475
ionen 161470
Welt@@ 161461
שב@@ 161448
ก@@ 161442
차@@ 161423
executive 161420
tower 161417
Verein 161400
Philip 161389
codice 161371
ות@@ 161361
итель 161338
certains 161334
differ@@ 161307
стом 161299
国際 161293
stands 161290
Special 161283
μια 161268
Winter@@ 161260
يا 161238
半@@ 161227
facilities 161220
Mü@@ 161219
orit@@ 161216
Gora 161204
importance 161198
hace 161187
köz@@ 161166
pend@@ 161133
jet 161131
Dieser 161088
evid@@ 161071
Ung@@ 161068
rost@@ 161067
す@@ 161066
ip 161020
över@@ 161006
anz@@ 160999
osob@@ 160999
可@@ 160998
vide@@ 160997
將@@ 160996
תי@@ 160987
אנ@@ 160983
chosen 160979
приня@@ 160978
Hä@@ 160948
plu@@ 160942
مثل 160935
лё@@ 160918
발@@ 160901
otto 160868
раль@@ 160866
Under@@ 160845
All-@@ 160835
roles 160829
Co 160827
المتحدة 160803
iba 160794
claim 160778
Prä@@ 160763
insur@@ 160748
wher@@ 160716
Bell 160713
surprise 160709
reaching 160694
darauf 160679
ച 160669
カ 160637
ване 160634
195@@ 160625
альных 160615
ottobre 160598
font 160576
Space 160570
Лі@@ 160557
Hat@@ 160536
Hills 160527
Popular 160527
mittel@@ 160471
scar@@ 160457
erschien 160440
しま 160436
อ 160426
stän@@ 160416
Brun@@ 160407
nick@@ 160395
постро@@ 160384
fres@@ 160370
francese 160364
CO 160363
classific@@ 160351
它 160337
Kinder 160303
luglio 160283
ilen 160279
tv@@ 160278
داد 160269
코@@ 160266
ಯ@@ 160243
PA 160242
Neben 160224
Uniti 160220
Num@@ 160178
Moh@@ 160176
開催 160157
oba 160133
operating 160127
Boh@@ 160125
거@@ 160124
Rusya 160121
greater 160120
kunde 160097
zeich@@ 160090
te-@@ 160069
meno 160062
masa 160049
خلال 160047
TA 160043
совет@@ 160029
chec@@ 160028
els@@ 160023
amat@@ 160015
配@@ 160014
спи@@ 159987
ът 159981
inden 159974
guar@@ 159968
anne 159966
tend 159966
MP 159960
聖@@ 159927
internation@@ 159917
Com 159909
hir@@ 159909
وجود 159902
sounds 159891
nungen 159885
Kreis 159850
cí@@ 159837
musique 159835
publication 159830
Dou@@ 159823
必要 159820
iano 159792
Dag@@ 159781
Tochter 159774
zion@@ 159736
cambio 159720
meas@@ 159712
Rolle 159690
kalapukan 159688
americana 159680
detta 159668
icos 159664
自 159661
Nak@@ 159651
ären 159649
było 159642
volun@@ 159631
золо@@ 159628
origen 159597
arsi 159588
функ@@ 159567
Además 159561
토@@ 159558
shared 159551
gather@@ 159549
Delhi 159529
estimated 159519
mog@@ 159514
possibly 159509
agus 159495
вя@@ 159466
mà 159447
твор@@ 159445
grâce 159444
Пу@@ 159438
kry@@ 159431
anst@@ 159427
siden 159422
langaw 159412
куп@@ 159401
Polish 159381
mange 159349
identified 159343
predic@@ 159329
keeping 159326
four-@@ 159296
付 159283
Thi@@ 159281
Up 159273
хі@@ 159251
Kos@@ 159213
ските 159211
rooms 159186
posición 159168
tang@@ 159154
nte 159127
Savannklimat 159126
dedic@@ 159109
ход 159104
लिए 159080
full-@@ 159040
фон 159036
Kini 159032
33@@ 159031
combined 159022
roy 158989
eas 158960
человека 158954
ότι 158903
著 158865
safety 158861
detec@@ 158848
footballer 158822
Nederlandse 158816
Departamento 158783
вка 158776
шая 158763
ideas 158757
imag@@ 158754
ather 158712
tweede 158692
Ster@@ 158664
alive 158658
reput@@ 158640
Ron@@ 158638
både 158637
picture 158630
ギ@@ 158619
kai 158612
ало 158605
シーズン 158587
Chil@@ 158572
vara 158554
method 158534
jec@@ 158504
dva 158494
first-@@ 158489
deser@@ 158483
royal 158468
succès 158455
setzung 158445
phil@@ 158444
Pac@@ 158420
Prime 158413
ау@@ 158411
監督 158411
reduc@@ 158371
2,5 158349
nuo 158348
人物 158324
lief@@ 158315
Prin@@ 158294
mier@@ 158289
เมื่อ 158264
embar@@ 158260
aces 158258
годов 158257
pertama 158244
論 158236
Mang@@ 158232
application 158218
愛@@ 158205
sod@@ 158204
perman@@ 158203
covers 158185
Arroyo 158179
format@@ 158144
ght 158141
Bruce 158140
largely 158132
sog@@ 158129
windows 158127
以@@ 158083
quer@@ 158060
diente 158045
уча@@ 158042
ony@@ 158035
дал 158033
Ale@@ 158026
xuất 158023
nit 158002
стат@@ 157977
rez@@ 157973
mellan 157947
segle 157929
alli 157921
practic@@ 157916
cub@@ 157915
Ten 157890
στον 157874
sama 157870
coffee 157869
гло@@ 157858
errichtet 157855
föl@@ 157855
တွင 157849
För@@ 157845
alcune 157843
generale 157838
heads 157838
psi@@ 157836
lady 157813
stayed 157800
nö@@ 157792
ську 157775
NFL 157771
bound 157741
niki 157741
матери@@ 157707
ebbe 157698
غ 157692
ennen 157662
IP 157660
မ@@ 157640
CE@@ 157612
founder 157608
προ@@ 157600
död 157591
sko-@@ 157588
вої 157568
Saf@@ 157557
máis 157537
languages 157533
физи@@ 157494
accoun@@ 157485
mic 157483
awan 157480
ита 157473
tron@@ 157468
ío 157458
później 157455
1857 157443
izz@@ 157439
iana 157436
divor@@ 157435
пове@@ 157431
ს@@ 157428
Cuba 157427
オン 157414
becomes 157398
div@@ 157387
istan 157385
рон@@ 157385
йн 157380
Kot@@ 157378
Jugend@@ 157362
적 157332
prise 157325
プ 157310
治 157304
Это 157303
ked@@ 157284
Gos@@ 157255
Maryland 157252
weg@@ 157242
eket 157237
condition 157219
Jean-@@ 157214
academic 157202
чески 157201
Β@@ 157198
doch 157182
deck@@ 157146
خ 157136
models 157119
nik@@ 157113
Pulo 157096
fid@@ 157088
PR@@ 157079
attività 157072
religion 157066
主義 157036
드 157030
ż 157029
۱ 157012
Segunda 157006
as-@@ 157004
inser@@ 156989
passe 156969
最初 156966
Krist@@ 156964
nın 156955
ング 156940
pill@@ 156902
localidad 156891
Psych@@ 156887
내@@ 156886
Ú@@ 156877
非 156865
Police 156856
Dal 156840
sozi@@ 156832
Gast@@ 156824
điểm 156824
Arbeit 156823
常 156821
140 156820
dicembre 156807
kapul@@ 156799
knoc@@ 156797
игра@@ 156797
density 156744
División 156724
Cot@@ 156707
되어 156706
painting 156692
委員 156691
טה 156681
इस 156674
présent@@ 156665
determined 156664
bot 156659
edizione 156653
B.@@ 156631
novo 156612
bulak 156606
dụng 156587
alement 156583
cken 156570
া 156567
ında 156553
تحت 156544
Joan 156531
тон 156529
enty-@@ 156527
Coun@@ 156515
Gabriel 156515
polici@@ 156495
бур@@ 156489
вались 156478
η@@ 156473
seite 156455
días 156454
Hun@@ 156451
lı 156418
particolare 156415
ress 156392
viên 156392
insbesondere 156386
pick 156376
ド 156358
Register 156355
Nelson 156352
szerint 156349
Kri@@ 156337
konnten 156337
chas 156299
chas@@ 156293
bild@@ 156287
schi@@ 156261
sah@@ 156250
جو 156240
protec@@ 156238
Bishop 156221
uch 156204
otes 156202
н. 156202
motion 156194
satis@@ 156189
испол@@ 156187
מק@@ 156184
хан@@ 156182
Tot@@ 156177
ノ 156173
تع@@ 156161
提@@ 156161
muchos 156146
tif 156136
millions 156125
людей 156116
参@@ 156105
volte 156104
製 156103
宮@@ 156097
ға 156092
188@@ 156087
няя 156084
aired 156073
強@@ 156063
再@@ 156053
report@@ 156050
獲得 156049
kung 156039
ang-@@ 156029
Brazil 156026
blandskog 156016
mesi 156005
quant@@ 155952
hill 155940
begins 155909
五@@ 155891
emig@@ 155877
בים 155873
Kevin 155856
Australien 155853
Hoa 155853
sep@@ 155837
axe 155835
omas 155834
支@@ 155824
phía 155806
оз@@ 155805
表示 155777
mediante 155763
wich@@ 155756
gemein@@ 155755
odd 155749
snap@@ 155728
ала@@ 155705
stare 155700
ovi@@ 155694
eat 155693
Lon@@ 155687
教授 155683
tradi@@ 155677
תי 155677
zach@@ 155660
vị 155655
Мак@@ 155623
Ν@@ 155610
rock@@ 155602
xi@@ 155594
passage 155585
fö@@ 155570
aft 155560
1840 155549
altitude 155524
Weltkrieg 155518
只 155510
turns 155499
enfants 155480
Vari@@ 155474
rand 155467
pesar 155446
grup 155431
Due 155422
తి 155406
Trans@@ 155395
MP@@ 155390
tio 155380
ό@@ 155355
Frederick 155343
Основ@@ 155341
конце 155325
ά@@ 155323
cali@@ 155313
Dorf 155306
personnes 155298
197@@ 155290
тич@@ 155289
Че@@ 155284
加 155273
工@@ 155267
Fron@@ 155260
Jabal 155205
اف@@ 155203
South@@ 155199
זי@@ 155178
Sungai 155164
ソン 155138
Nederland 155136
트@@ 155120
thick 155079
כה 155068
heal@@ 155049
passes 155044
Adolf 155040
occupied 155024
cies 154976
kod@@ 154954
digt 154947
英@@ 154932
все@@ 154924
バー@@ 154916
write 154915
치@@ 154915
Revolution 154906
figur@@ 154900
funk@@ 154899
Law@@ 154891
196@@ 154888
flav@@ 154883
Country 154881
île 154862
punt 154861
Tag 154850
producción 154846
لات 154846
misma 154843
Tub@@ 154829
ović 154822
היו 154822
cao 154813
Gemein@@ 154812
頃 154800
Rahmen 154795
learned 154794
profil@@ 154773
сси@@ 154731
bel 154720
acked 154702
tropical 154701
murder 154695
disse 154690
fortun@@ 154677
(平成 154671
HMS 154670
rebel@@ 154653
Kỳ 154635
stance 154633
wish 154621
Jon@@ 154598
chim@@ 154597
бойынша 154587
код 154570
nest@@ 154568
נית 154564
chin 154557
Gli 154556
RO@@ 154538
lle@@ 154530
生まれ 154528
omen 154513
حة 154513
magyar 154512
defined 154506
accident 154448
Islam 154443
pig@@ 154423
architec@@ 154401
tax 154400
ющие 154396
err@@ 154393
czasie 154392
message 154391
audience 154390
ети@@ 154377
Sym@@ 154375
Play@@ 154372
structures 154371
Project 154365
Richtung 154362
cuộc 154358
結果 154352
smo@@ 154343
trol@@ 154342
вед@@ 154314
воло@@ 154312
Del 154287
mid 154270
ovala 154247
наль@@ 154232
Guerre 154228
temp@@ 154209
tó 154199
azi 154152
mento 154150
chose 154130
Euro 154119
furent 154115
vere 154107
l-@@ 154105
بی 154105
hog@@ 154099
ческая 154090
was@@ 154050
кто@@ 154045
dió 154025
poj@@ 154009
enas 154006
Centro 153986
์ 153968
1800 153957
一個@@ 153940
ŝ@@ 153910
AT 153888
Partei 153878
16-@@ 153872
Mae 153871
tens 153827
neh@@ 153793
опера@@ 153765
‘ 153729
Lak@@ 153724
ńskiego 153722
pilot 153702
file 153687
34@@ 153680
فة 153677
hommes 153670
Після 153669
promotion 153664
Anth@@ 153663
受@@ 153659
입@@ 153652
tvåvingeart 153631
yle 153620
regione 153602
にて 153600
条 153600
音@@ 153599
男 153575
brand@@ 153567
stvo 153544
имеет 153528
princ@@ 153507
preced@@ 153490
jeune 153488
bian 153485
Roz@@ 153469
More 153453
ter-@@ 153441
bill 153439
única 153417
improv@@ 153390
Millionen 153384
章 153362
Sto@@ 153361
Magazine 153333
Λ@@ 153321
ში 153318
旧 153315
Ман@@ 153312
করে 153311
مان 153310
finalmente 153293
Gren@@ 153287
Naglangkob 153280
тов@@ 153268
Ново@@ 153263
1858 153252
350 153249
تعداد 153240
史 153225
września 153210
基 153209
enemy 153178
сил 153176
spielen 153161
CA 153157
Federation 153130
屋 153127
jem 153126
дал@@ 153122
owana 153083
drink 153057
ential 153042
bra 153030
dok@@ 153030
ib 153028
chang@@ 153017
reform@@ 153015
wag@@ 153015
occas@@ 153013
ი@@ 152989
seit@@ 152980
borg 152975
inaugur@@ 152960
端 152958
12,@@ 152941
pedig 152930
or-@@ 152928
Ta 152908
episodes 152895
vik 152894
Frankfurt 152888
قة 152887
transfer 152884
liked 152882
inver@@ 152879
Sho@@ 152870
tête 152854
figlio 152838
進@@ 152827
Westen 152826
proce@@ 152812
erneut 152782
пос@@ 152780
ların 152771
especies 152770
brain 152752
capitale 152750
hoz 152735
siy@@ 152734
чо@@ 152733
obi@@ 152713
Bef@@ 152706
declar@@ 152704
宗 152702
CI@@ 152695
గా 152670
hus@@ 152644
pid 152631
ô 152630
Hem@@ 152618
火@@ 152608
Kaz@@ 152575
яких 152573
audi@@ 152567
basen 152564
laz@@ 152561
wach@@ 152555
libre 152544
zm. 152542
AB@@ 152534
出演 152520
concre@@ 152514
attribu@@ 152513
iju 152478
veg@@ 152456
nieder@@ 152454
Dow@@ 152441
類 152441
cido 152426
figura 152420
går 152407
ân@@ 152387
Ner@@ 152353
IS 152349
עה 152346
Sad@@ 152336
castle 152327
idades 152324
distribut@@ 152319
ол@@ 152318
critical 152312
Your 152303
ض 152290
infatti 152281
Ori@@ 152277
attacked 152268
aines 152267
petit 152263
Pag@@ 152245
דו@@ 152239
ingu@@ 152230
ley@@ 152226
線@@ 152224
vous 152219
zituen 152214
себе 152210
ń@@ 152209
réalis@@ 152207
1856 152201
Fest@@ 152187
travail 152185
нь@@ 152183
ciu 152177
Jane 152176
מו 152147
hijo 152143
bere 152109
veces 152089
duas 152074
dez 152067
غير 151989
dle 151984
spiel 151981
نه 151977
confirmed 151965
イギリス 151930
What 151919
vai 151901
Osten 151890
Blan@@ 151881
bishop 151879
Bod@@ 151875
право@@ 151846
縣 151831
awards 151825
oit@@ 151825
urban 151824
đội 151811
akh@@ 151810
1849 151802
tiu 151799
eingesetzt 151767
drop 151763
当 151761
助 151724
ישראל 151717
background 151703
其他 151692
mó@@ 151689
taj@@ 151683
annte 151672
Miami 151644
slu@@ 151636
wij@@ 151608
15-@@ 151602
rè@@ 151584
設置 151584
37@@ 151558
cánh 151556
allows 151539
ری 151537
nhưng 151529
respectively 151524
Lud@@ 151508
Naz@@ 151497
prot@@ 151493
gw@@ 151465
بل@@ 151451
190 151449
ť 151446
وهو 151446
General@@ 151418
carry 151417
brief 151412
事業 151403
bring@@ 151401
시 151397
yy@@ 151396
então 151356
Durant 151349
Houston 151349
ranked 151314
dez@@ 151305
东@@ 151291
Johnny 151283
teatro 151274
construcción 151266
Regional 151263
ског 151233
razy 151228
林@@ 151222
Kes@@ 151214
nehmen 151210
Ü@@ 151207
firma 151203
tively 151186
Oklahoma 151179
ُ@@ 151169
河@@ 151169
arqu@@ 151163
Out 151102
زی@@ 151064
granted 151055
http 151053
居 151042
G-@@ 151024
wand@@ 151022
成功 151012
созда@@ 151006
normal@@ 151000
Aus 150996
fram 150973
neu@@ 150956
Lors 150950
Gau@@ 150944
tée 150944
cosa 150942
マ 150937
проек@@ 150925
resol@@ 150889
цар@@ 150883
fico 150864
ced@@ 150863
jär@@ 150850
aprile 150835
växter 150828
SM@@ 150815
militaire 150806
zte 150796
شهرستان 150791
Beispiel 150783
matang 150773
ABC 150771
opol@@ 150739
kunnen 150732
cinema 150709
르@@ 150700
їх 150696
lớn 150687
gian 150660
rech@@ 150660
اني 150656
работы 150647
Paul@@ 150646
leng@@ 150631
primeros 150629
pit 150608
leadership 150605
гов 150594
findet 150577
клю@@ 150575
agit 150555
ряд 150555
quasi 150546
בח@@ 150541
fosse 150540
Ja@@ 150532
ственный 150525
circum@@ 150524
prz@@ 150518
画 150510
перед 150476
Хо@@ 150471
лод@@ 150448
Wis@@ 150436
acts 150433
maximum 150432
यह 150430
лена 150427
לנ@@ 150427
subur@@ 150425
先 150419
正式 150413
גר@@ 150376
bach@@ 150335
ück@@ 150328
chev@@ 150322
kapit@@ 150308
Alto 150305
וני 150305
dien@@ 150299
tz 150283
ஆண 150278
ministre 150275
lier 150252
Agri@@ 150245
generation 150244
트 150244
мини@@ 150232
seats 150197
finan@@ 150175
cách 150173
Gab@@ 150167
йского 150165
ambos 150137
behoort 150132
soul 150109
wear 150098
ers@@ 150092
analysis 150089
profit 150068
biz@@ 150064
Вер@@ 150053
Sciences 150050
fikk 150045
significa 150041
eeuw 150026
母 150026
яз@@ 150024
ason 150010
halb 150005
eigenen 149980
wz@@ 149975
lam 149943
Frankreich 149930
ijk 149905
بار@@ 149900
siste 149888
mans 149882
ッド 149879
უ@@ 149878
tales 149870
宮 149856
advoc@@ 149855
сан 149852
体@@ 149847
thin 149834
cool 149824
techniques 149814
titles 149803
ランド 149791
האו@@ 149768
weapons 149743
לת@@ 149739
空 149736
gin 149733
syl@@ 149730
.-@@ 149725
Rein@@ 149721
asis 149721
Eisen@@ 149690
бере@@ 149687
план@@ 149662
depic@@ 149648
第二 149634
白 149626
ին 149625
davon 149614
19@@ 149611
حسب 149598
riv@@ 149580
镇 149569
Bang@@ 149564
風 149555
sein@@ 149545
Josef 149541
lingu@@ 149534
tijdens 149517
tự 149512
receive 149505
オ 149497
Studio 149495
zust@@ 149474
hosted 149471
Lok@@ 149468
omen@@ 149466
起@@ 149453
naval 149437
bản 149436
жений 149426
Chin@@ 149416
totale 149400
лены 149398
aning 149392
사 149387
orio 149377
cum 149376
einander 149376
nten 149359
రి@@ 149359
실@@ 149353
reality 149345
نسبة 149345
innerhalb 149344
ası 149343
1855 149339
população 149315
ながら 149313
بي 149300
ân 149278
Después 149272
dienst 149271
tako 149232
101 149214
Ze@@ 149205
cambi@@ 149205
-O@@ 149199
bởi 149199
nuova 149199
lite 149180
ину 149179
выступ@@ 149178
missing 149161
kingdom 149138
Zug@@ 149132
üst@@ 149121
prix 149120
junior 149097
ail 149091
לכ@@ 149091
通常 149080
bestand 149077
école 149035
kraju 149031
кие 149027
tir 149025
18-@@ 149020
navig@@ 148994
gebracht 148983
花 148981
→ 148965
fier 148945
ष 148936
ельно 148935
cantante 148929
eric 148919
bilo 148916
były 148915
ijos 148896
ثم 148895
Ridge 148883
maakt 148881
亞@@ 148863
kraj@@ 148861
millones 148844
Norge 148805
জন 148804
ouest 148799
anni@@ 148792
ран 148792
tych 148790
regions 148777
lane 148756
3rd 148737
ına 148714
чин@@ 148703
mb@@ 148692
više 148680
alternative 148671
transmit@@ 148668
NO@@ 148666
ró 148631
viz@@ 148629
ху 148619
killing 148599
پس 148589
insect 148587
www.@@ 148582
학@@ 148559
תו@@ 148550
ți 148536
entsch@@ 148533
Ell@@ 148511
ider@@ 148487
kran@@ 148461
sburg 148453
analy@@ 148437
resulted 148427
verk@@ 148424
dö@@ 148412
aŭ 148405
telep@@ 148403
טו@@ 148403
conf@@ 148398
область 148394
keversoort 148382
чего 148382
док 148377
specializ@@ 148372
лав@@ 148372
kant@@ 148321
bedeut@@ 148306
tah@@ 148306
ави@@ 148305
fak@@ 148301
correc@@ 148293
bok@@ 148251
olar@@ 148226
Кра@@ 148225
Außerdem 148217
fahren 148207
同じ 148205
fet 148202
powiecie 148201
tly 148184
prince 148155
yellow 148139
maison 148132
laws 148130
noon 148093
ひ@@ 148074
communities 148064
истории 148061
Alice 148051
Community 148038
ené 148036
lå@@ 148036
kreeg 148028
ನ@@ 148027
oire 148013
iron 147984
lid 147982
iş@@ 147973
annu@@ 147945
نی 147936
beb@@ 147928
utta 147928
noc@@ 147923
佐@@ 147922
ص 147917
kü@@ 147904
pueblo 147901
writ@@ 147894
內@@ 147885
arias 147884
trip 147876
ही 147872
角 147860
flam@@ 147856
minim@@ 147855
gadā 147844
Ке@@ 147806
اند 147806
struc@@ 147791
Bü@@ 147784
pack@@ 147779
défin@@ 147777
女@@ 147760
trouble 147754
technolog@@ 147732
125 147727
få 147726
unden 147725
amos 147724
Doctor 147718
Haf@@ 147715
flag@@ 147715
osób 147686
shape 147683
kod 147673
მო@@ 147668
187@@ 147658
secara 147656
Ross 147653
front@@ 147649
Because 147634
rail@@ 147629
expanded 147603
ล 147598
racing 147594
Jacob 147574
twenty 147570
скими 147565
cells 147552
letters 147552
bahwa 147546
rato 147533
wered 147524
рік 147517
ново@@ 147504
vra@@ 147471
цей 147470
Staaten 147454
чу 147452
ым 147443
1854 147441
LA 147434
districts 147400
Timur 147396
materials 147375
Fort@@ 147362
gain 147344
sait 147340
Lot@@ 147306
Georges 147304
案 147304
dre 147300
lungo 147291
schafts@@ 147276
學 147274
aujourd' 147269
று 147260
burn 147242
Hip@@ 147235
votes 147222
широ@@ 147196
burger 147177
чных 147166
년 147165
explo@@ 147127
formal 147114
этот 147100
zenie 147087
damals 147085
eram 147067
inglés 147048
силь@@ 147046
પ 147008
byly 147002
Quando 146999
Sid@@ 146999
avo 146985
Nep@@ 146970
Tim 146969
Pes@@ 146956
secretar@@ 146947
entirely 146916
ében 146914
Также 146886
nement 146872
عا@@ 146857
annat 146799
counter 146787
rent@@ 146769
川@@ 146767
發@@ 146766
finanzi@@ 146755
Free 146753
рез@@ 146741
nea 146740
Morgan 146736
út 146721
insist@@ 146719
Marco 146712
ică 146709
38@@ 146696
frame 146661
AP 146657
сле@@ 146645
дости@@ 146638
最高 146637
スター 146611
trở 146599
зы 146581
ije 146578
kach 146575
rien 146567
Krieg@@ 146564
cent 146559
fib@@ 146549
ezen 146529
мина@@ 146527
tall@@ 146526
Alt@@ 146510
imper@@ 146509
Ele@@ 146501
nazionale 146488
folgte 146476
ел 146432
по-@@ 146427
Einsatz 146421
planning 146409
enger 146399
uar@@ 146399
championnat 146393
effective 146367
abor@@ 146351
洋 146346
myst@@ 146344
ร์ 146344
源 146341
upp 146340
hecho 146317
群 146310
iner@@ 146292
री 146284
nominated 146277
desa 146273
gig@@ 146247
dert 146221
programma 146207
pouvoir 146197
recommen@@ 146197
urus 146196
guns 146166
ンド 146146
בות 146139
演 146136
tured 146133
recover@@ 146124
გა@@ 146124
ed-@@ 146119
Musik 146080
attacks 146080
само 146073
目@@ 146038
führen 146037
єю 146036
Ryan 146031
calls 145993
вим 145986
ME@@ 145979
рак@@ 145965
побе@@ 145964
E.@@ 145959
reasons 145948
reviews 145937
Today 145926
ās 145917
мас@@ 145912
13.@@ 145909
戰@@ 145906
Seite 145905
Maurice 145903
開 145903
優勝 145901
тот 145895
ael 145880
цо@@ 145859
వా@@ 145855
NE@@ 145854
successo 145849
права 145847
kolej@@ 145803
scoring 145795
ეს 145789
aves 145788
16,@@ 145775
Provinz 145771
restaurant 145769
turing 145758
powers 145757
starb 145754
Zi@@ 145753
lập 145733
часто 145713
odi 145712
wod@@ 145687
ên 145675
первый 145674
avoid 145665
claims 145644
være 145626
Schule 145610
reduced 145601
Jimmy 145594
Gö@@ 145587
게 145579
ава@@ 145560
refle@@ 145550
organ 145545
гат@@ 145527
ándose 145505
siège 145502
censo 145498
confir@@ 145498
phải 145486
ən 145447
llam@@ 145445
ativ@@ 145392
images 145374
付け 145365
Hugo 145363
examin@@ 145342
artista 145341
enregist@@ 145334
Wes@@ 145329
Grant 145317
És 145311
joueur 145299
Leipzig 145286
Fame 145271
՝ 145269
пов 145260
weren 145253
ným 145248
committee 145228
kulle 145226
sust@@ 145222
мати@@ 145214
mejor 145211
diffic@@ 145204
schloss 145199
alità 145191
ców 145187
absol@@ 145183
accompag@@ 145171
newly 145158
Buch@@ 145155
ã 145151
electric 145147
pant@@ 145070
bright 145059
grat@@ 145058
ウェ@@ 145053
rā@@ 145050
flat 145030
Boy 145010
Elec@@ 145010
Bac@@ 144999
ehen 144990
Năm 144984
pelos 144984
۲ 144967
year-old 144966
Doc@@ 144955
zar 144941
區@@ 144940
ść 144911
siva 144893
versione 144890
ете 144889
villa 144874
perché 144872
バス 144855
ikan 144841
mediana 144823
او@@ 144818
giới 144808
yed 144804
sala 144803
имени 144794
Unter 144770
Fro@@ 144757
arre@@ 144727
vest 144708
ca. 144700
SO@@ 144697
ník 144692
Instituto 144691
Mesa 144666
Alaska 144644
大阪 144623
רו 144603
щих 144578
-sur-@@ 144552
eso 144545
span@@ 144538
شا@@ 144525
€ 144521
風@@ 144508
Wieder@@ 144498
Bij 144494
дия 144493
節 144485
t. 144479
ained 144468
juego 144437
טים 144435
Nap@@ 144426
డ@@ 144426
sī 144416
Sof@@ 144410
Billy 144402
adver@@ 144402
birds 144400
interven@@ 144399
lingen 144388
alment 144385
portion 144384
Clar@@ 144365
கு@@ 144364
Dic@@ 144351
LP 144341
Philippe 144317
ыл@@ 144283
tritt 144259
別@@ 144255
пи 144250
Jordan 144249
Tropiskt 144247
ське 144224
klasse 144216
両@@ 144214
siz@@ 144213
участ@@ 144193
ε@@ 144187
häng@@ 144165
деревня 144165
laquelle 144151
Square 144149
ns@@ 144148
Salvador 144147
אחד 144125
Primera 144111
シュ@@ 144092
disease 144072
низ@@ 144060
comput@@ 144007
श 143994
apart 143983
соци@@ 143979
prakt@@ 143974
ekonom@@ 143965
וע@@ 143954
monument 143937
mehr@@ 143920
lea 143884
cancer 143863
לב@@ 143840
из-за 143835
-up 143831
Franklin 143823
cional 143822
develop 143813
kami 143800
ах 143780
gegeben 143773
gó@@ 143773
سطح 143771
דת 143766
Hub@@ 143757
18,@@ 143749
Durch@@ 143746
Folge 143736
nuclear 143712
Hus@@ 143690
llamado 143690
Adams 143685
Zar@@ 143670
teen@@ 143668
zten 143659
orium 143657
volgende 143643
英 143637
Beginn 143636
conjunto 143615
SV 143612
atel@@ 143602
oking 143563
Sport 143532
Supreme 143531
titel 143531
evi@@ 143519
Milan 143512
slav@@ 143507
só@@ 143497
Camp 143489
Kelly 143486
Nan@@ 143485
có@@ 143480
applied 143471
opus 143448
Schweiz 143444
вос@@ 143437
formar 143422
Wir@@ 143409
października 143405
Ministry 143400
jat@@ 143365
R.@@ 143350
która 143350
creation 143344
tiny 143339
ције 143337
kontrol@@ 143324
mostra 143320
político 143299
لي 143284
wet 143283
Alberto 143260
kenn@@ 143260
ダー 143254
listopada 143250
fille 143248
aang@@ 143239
schrieb 143221
eny 143189
esting 143179
ウィ@@ 143172
fly@@ 143162
OR@@ 143125
jez@@ 143120
comun@@ 143076
université 143072
elektron@@ 143069
extin@@ 143068
oten 143062
amen 143058
oral 143056
geht 143051
太@@ 143042
ական 143039
sjön 143034
ウ 143008
frem@@ 143005
xi 142993
teaching 142992
Oli@@ 142988
opštini 142985
suffici@@ 142977
Efter 142970
sels 142968
森 142961
нор@@ 142954
Rudolf 142952
mt 142938
advis@@ 142935
ған 142922
ettiin 142916
Фи@@ 142847
لی 142843
Chang@@ 142836
High@@ 142834
Fund@@ 142819
Sit@@ 142815
appel@@ 142810
Kis@@ 142788
ஒரு 142787
bod@@ 142783
Liverpool 142770
authority 142753
femme 142738
க@@ 142724
Lebens@@ 142707
elli@@ 142706
successfully 142683
Coleoptera 142682
Gon@@ 142672
heutigen 142671
دار 142666
zel 142653
запи@@ 142647
owała 142639
écrit 142636
Chem@@ 142628
1851 142627
総@@ 142623
ニー 142612
sola 142608
oked 142597
路@@ 142591
lara 142582
1852 142575
vehicle 142550
후@@ 142547
шка 142540
відо@@ 142526
马@@ 142517
loi 142510
onie 142504
ат 142493
teren 142484
送 142475
starts 142471
bow 142469
связи 142469
கொண 142469
素 142460
Wind@@ 142435
ন 142416
Rak@@ 142398
Hart@@ 142386
Johan 142383
memb@@ 142353
ède 142352
alité 142349
correspon@@ 142349
entit@@ 142343
fia 142330
ž 142329
Burg 142327
obten@@ 142316
популяр@@ 142310
elem@@ 142309
anto 142306
Luft@@ 142300
Was@@ 142295
人民 142244
sberg 142235
Lic@@ 142208
estu@@ 142207
pre 142203
Vuonna 142190
raison 142164
ственной 142158
нага 142147
崎 142137
ニア 142118
Giuseppe 142113
literature 142097
médi@@ 142089
dent@@ 142082
horn 142080
destac@@ 142079
Pok@@ 142064
evangel@@ 142046
internet 142035
impul@@ 142029
込 142007
dul@@ 142006
Jorge 142002
muss 141998
Сан@@ 141998
hung 141991
Пра@@ 141991
slag 141979
condi@@ 141964
iš 141959
DJ 141957
15,@@ 141947
만@@ 141940
zim@@ 141933
Korean 141926
flying 141924
בק@@ 141921
signal 141894
роках 141888
Tou@@ 141887
Ani@@ 141882
schrift 141880
نے 141874
duo 141867
kurz 141861
partidos 141845
hey 141842
havde 141833
Light 141818
Ref@@ 141816
thers 141810
Jah@@ 141808
respect 141808
ام 141808
ploy@@ 141806
యా@@ 141801
slid 141773
rados 141762
Charlotte 141746
Porto 141740
rang 141740
Clu@@ 141709
livre 141696
exter@@ 141695
ია 141672
Set@@ 141648
secondary 141640
тон@@ 141630
بخش 141603
థ 141586
場@@ 141566
ichte 141561
مان@@ 141561
phân 141546
вой@@ 141545
шта@@ 141535
Yan@@ 141531
爾 141525
único 141519
اً 141506
Earl 141493
ند@@ 141482
appropri@@ 141479
客 141476
n. 141458
wild 141453
ensk@@ 141438
Sarah 141422
Welt 141421
francés 141402
lég@@ 141393
joy 141370
seul 141366
mir 141359
steel 141347
Def@@ 141340
století 141339
Opera 141306
lishing 141293
社@@ 141291
existing 141257
crossed 141245
Höhe 141234
skap@@ 141230
根 141219
Kennedy 141209
cip@@ 141181
Christopher 141168
molti 141167
Afghanistan 141164
omgivande 141162
між 141151
numer@@ 141140
наук 141117
ού 141110
organizations 141092
toe 141092
aes 141066
nymi 141040
commander 141039
eure 141039
vand@@ 141036
δεν 141031
шин@@ 141028
ου@@ 141019
ostat@@ 141001
线 140987
participe 140986
жен 140965
ticos 140960
grudnia 140941
omyia 140914
transpor@@ 140897
czerwca 140890
graph@@ 140888
einz@@ 140882
Amerikaanse 140881
Anton 140881
ונות 140874
близько 140867
menor 140847
Tap@@ 140845
ונים 140839
még 140835
hett 140831
temperature 140825
Arena 140824
zweite 140817
ne-@@ 140804
Oblast 140803
cement 140782
especialmente 140781
Lun@@ 140763
shel@@ 140761
dated 140752
(), 140746
Halb@@ 140745
Harvard 140737
街 140725
século 140707
Swedish 140702
ticas 140698
各@@ 140693
ographie 140684
nay 140675
соб@@ 140670
aware 140664
Coupe 140647
grazie 140647
ара@@ 140628
Stanley 140624
shall 140610
Person@@ 140608
ι 140599
stieg 140567
ellas 140561
ını 140558
element 140556
elde 140551
author@@ 140549
стер@@ 140548
普@@ 140542
liegen 140540
Premio 140536
യ@@ 140512
développement 140495
reports 140475
album@@ 140472
agne 140466
ror 140459
zem 140454
ளது 140454
нар@@ 140452
try@@ 140449
Harris 140436
적인 140426
Lah@@ 140425
richtung 140424
Bürger@@ 140420
lau 140408
esh@@ 140395
comenzó 140382
kamen 140371
ца@@ 140350
пал@@ 140330
Springs 140327
＝ 140317
Front 140298
flow 140287
終@@ 140273
ativas 140236
igh 140235
oldest 140197
succeeded 140194
flash@@ 140188
ubicado 140188
mati@@ 140181
ఒక 140176
papa 140169
cob@@ 140165
ehemaligen 140165
Cr@@ 140157
monte 140154
roads 140147
sile 140138
kiej 140136
Charlie 140123
مست@@ 140123
親@@ 140107
気@@ 140102
選@@ 140094
model@@ 140090
owanie 140084
дах 140082
тво@@ 140060
Slav@@ 140049
inspired 140041
ಮ@@ 140027
بلغ 140012
uč@@ 140008
envi@@ 140003
Spor@@ 139999
Boys 139980
edel@@ 139946
vain 139945
concur@@ 139938
learning 139927
ого 139927
personnel 139926
phần 139905
складу 139894
nat 139889
otti 139879
connection 139871
assassin@@ 139861
ře 139857
mezi 139853
17,@@ 139847
rå@@ 139834
ację 139831
bem 139824
Slov@@ 139822
vengono 139812
Demokrat@@ 139803
Riv@@ 139802
буду@@ 139798
江@@ 139785
想 139782
Terra 139773
Depuis 139746
advanced 139740
Jahres 139738
Eth@@ 139737
2009an 139735
הראשון 139734
la-@@ 139724
six@@ 139706
që 139705
protagon@@ 139692
ange 139679
emente 139676
justice 139676
day@@ 139674
està 139661
remporte 139637
نة 139624
sil 139619
rast@@ 139614
dago 139610
الغ@@ 139596
島@@ 139584
Lanaw 139579
Zur 139570
Ox@@ 139569
永@@ 139568
зь@@ 139567
образом 139567
bird 139562
Hir@@ 139555
zh@@ 139543
copies 139530
contemporary 139528
Н. 139524
Kou@@ 139509
sui 139495
erst@@ 139493
مل@@ 139493
பு 139484
igi 139475
pect 139451
rodz@@ 139435
shop 139434
alles 139430
joue 139430
된다 139420
terrängen 139417
poten@@ 139408
Inc 139402
fire@@ 139391
airport 139387
spesies 139368
Christ 139365
mobile 139358
Champions 139345
otte 139313
Entwicklung 139288
tores 139281
search@@ 139280
வ@@ 139261
gebruikt 139245
visited 139240
lebel 139225
Sah@@ 139221
prim@@ 139211
انه 139209
טי 139208
Vall@@ 139205
כן 139205
count 139171
umen 139161
unknown 139146
fie 139144
tiếng 139144
salah 139142
ม 139126
camera 139124
Roy 139123
atac@@ 139123
Sang@@ 139122
encar@@ 139120
institutions 139119
laatste 139105
ம@@ 139096
дения 139072
commence 139071
Anh 139017
interested 139013
lick 139009
nant 138989
коли 138958
분@@ 138947
Indonesien 138943
рим@@ 138929
ဖြစ 138924
маль@@ 138916
nucle@@ 138903
198@@ 138902
dering 138892
науч@@ 138873
рэ@@ 138865
Nick 138859
பா@@ 138857
Allemagne 138840
zde 138830
sos@@ 138822
lượng 138816
Regierung 138804
iendo 138789
13,@@ 138758
卒業 138753
ää@@ 138752
アイ@@ 138749
tenien 138735
lor 138711
Мон@@ 138709
Bredden 138707
creating 138706
planet 138687
wet@@ 138685
blad@@ 138667
дів 138666
femin@@ 138658
δι@@ 138642
jut@@ 138638
seur 138630
นี้ 138627
Russell 138622
opposite 138618
Pow@@ 138604
ank@@ 138603
церкви 138599
oru 138597
Rud@@ 138596
chu 138591
survi@@ 138560
sweet 138539
farm 138532
umi@@ 138528
тат@@ 138498
oted 138487
habe 138483
ır 138482
infec@@ 138473
ijo 138462
pale 138420
seves 138409
Asi@@ 138396
Racing 138386
ciò 138375
zehn 138375
Б 138373
pup@@ 138363
ruolo 138359
iya 138336
аны 138332
Hag@@ 138326
setzt 138324
photograph@@ 138318
learn 138295
sla@@ 138267
gegenüber 138257
Gest@@ 138250
ală 138249
11-@@ 138247
German@@ 138244
Ча@@ 138227
theater 138224
dare 138220
aide 138215
серед@@ 138201
toen 138199
עו@@ 138195
funcion@@ 138190
werken 138182
catch 138173
kiv@@ 138173
Village 138171
uel 138170
alized 138157
inizio 138156
體 138148
rail 138138
용@@ 138132
Benjamin 138129
kost@@ 138126
esempio 138125
confi@@ 138117
kunne 138108
inti@@ 138107
accompan@@ 138086
Jazz 138056
consequ@@ 138040
Ś@@ 138034
kako 138018
sas@@ 138014
Dave 138006
никами 138004
落 138003
đại 137997
gruppen 137996
드@@ 137980
劇 137954
création 137948
hay@@ 137948
aniu 137943
magic 137939
tionary 137934
בן 137929
maggiore 137914
USS 137908
ني 137902
situato 137881
Atlanta 137872
đêm 137865
jar 137840
journal@@ 137840
support@@ 137831
sierpnia 137830
ナー 137822
美国 137794
headquarters 137786
ა@@ 137772
用@@ 137770
ert@@ 137764
Ј@@ 137761
今 137760
circul@@ 137740
عبد 137740
ajn 137730
ін 137726
Hymenoptera 137715
jev@@ 137714
Население 137714
нение 137714
Гра@@ 137701
itis 137699
besar 137683
Temple 137680
Mar 137673
cannot 137668
altung 137656
puntos 137640
والت@@ 137633
британ@@ 137615
klad@@ 137612
сла@@ 137600
理@@ 137575
組織 137575
戦争 137571
Chap@@ 137566
కా@@ 137565
計画 137558
mond 137533
uksen 137531
parking 137517
ほか 137514
París 137510
bằng 137503
alum@@ 137498
exchange 137488
mee 137477
εξ@@ 137468
weil 137457
scientific 137441
eper 137440
Ivan 137435
inspir@@ 137421
relatively 137405
vice-@@ 137398
N-@@ 137395
1815 137381
Detroit 137381
藤 137379
住 137374
ogra@@ 137342
ishes 137333
Hier 137307
fici@@ 137279
violence 137270
Utah 137265
فیلم 137252
tip 137244
especial 137235
f-@@ 137227
woh@@ 137220
ια 137217
校@@ 137210
Polski 137193
trước 137193
古 137182
ёр@@ 137171
alne 137149
tutte 137149
キ 137134
Television 137118
Ou@@ 137113
経 137107
14.@@ 137104
cả 137103
considé@@ 137099
Trong 137086
trường 137079
Aust@@ 137074
니@@ 137073
Teatro 137071
Meh@@ 137061
ivat 137059
べ 137057
lipca 137037
semin@@ 137031
dato 137027
côté 137023
them@@ 137018
samo 137010
Germania 137009
лишь 137005
mediteranyo 136988
ár 136981
formul@@ 136978
ink 136963
მ@@ 136960
tiert 136956
ub 136955
scrip@@ 136951
Rosa 136944
нач@@ 136944
Cau@@ 136934
pian@@ 136930
Orchestra 136924
kommun@@ 136915
guest 136913
stä@@ 136874
revol@@ 136868
night@@ 136867
emu 136865
سی 136844
ниот 136830
conflict 136825
pub@@ 136818
dient 136801
atur@@ 136791
desper@@ 136783
エン@@ 136766
fec@@ 136746
lip 136746
강@@ 136726
將 136722
1853 136714
技術 136711
сов@@ 136697
deliver@@ 136693
羅@@ 136652
Municipal 136651
chức 136650
tika 136650
ක 136642
ode@@ 136641
oz 136639
icked 136635
Sunday 136633
eigen@@ 136628
層 136627
directeur 136623
nok@@ 136618
miasta 136610
pid@@ 136595
Marc 136588
sene 136588
frequently 136585
Studi@@ 136583
дви@@ 136578
Emperor 136555
daily 136529
conser@@ 136508
miejscowość 136508
zav@@ 136497
2007an 136495
ята 136483
לות 136478
fü@@ 136477
ก 136476
うち 136474
demokrat@@ 136471
лися 136455
бле@@ 136451
capable 136449
ire@@ 136441
casos 136440
selling 136437
aš@@ 136435
остан@@ 136424
wen 136406
tons 136400
Bevölkerung 136372
aï@@ 136371
AA 136338
fum@@ 136334
outras 136333
Kub@@ 136321
maakte 136321
achieved 136313
Christmas 136299
prises 136298
defense 136277
oid@@ 136277
второй 136267
Fac@@ 136249
beberapa 136242
ıl@@ 136237
terre 136227
Kreuz@@ 136226
ommen 136223
miembros 136215
rencontre 136200
algunas 136189
Rog@@ 136181
kins 136169
injury 136155
周@@ 136145
pak 136111
从 136107
compan@@ 136101
mé 136099
Canyon 136095
Dep@@ 136066
ancy 136052
abile 136048
لە 136040
Norwegian 136013
водо@@ 136008
posta 135988
коль@@ 135982
osas 135979
ано 135976
altern@@ 135969
liches 135969
diverses 135958
erta 135942
র@@ 135931
Sweden 135925
складі 135918
zones 135912
tä 135905
zeug@@ 135901
République 135900
herr@@ 135889
Ін@@ 135878
Evangel@@ 135850
eld@@ 135846
rug@@ 135830
supply 135824
composition 135817
chy@@ 135802
వారా 135799
Borg@@ 135775
expansion 135769
вав@@ 135758
Hur@@ 135753
Chal@@ 135743
lé 135740
nave 135739
анти@@ 135734
म@@ 135729
eiden 135728
confes@@ 135717
ட@@ 135716
execut@@ 135685
дол@@ 135683
Among 135672
febbraio 135671
arbet@@ 135667
teten 135662
chur@@ 135653
environment 135653
rằng 135651
状 135644
행@@ 135639
ofte 135637
стич@@ 135615
Sev@@ 135570
sammen 135563
Alle 135550
experiment@@ 135545
Boul@@ 135533
С. 135521
食 135500
zahlreiche 135488
ppen 135477
siguientes 135466
2014. 135462
cien 135458
Hun 135457
對 135443
svar@@ 135428
建設 135424
Barbara 135413
[...]
